{
  "version": "1.0",
  "truncation": null,
  "padding": null,
  "added_tokens": [
    {
      "id": 0,
      "content": "<unk>",
      "single_word": false,
      "lstrip": false,
      "rstrip": false,
      "normalized": false,
      "special": true
    },
    {
      "id": 1,
      "content": "<bos>",
      "single_word": false,
      "lstrip": false,
      "rstrip": false,
      "normalized": false,
      "special": true
    },
    {
      "id": 2,
      "content": "<eos>",
      "single_word": false,
      "lstrip": false,
      "rstrip": false,
      "normalized": false,
      "special": true
    },
    {
      "id": 3,
      "content": "<pad>",
      "single_word": false,
      "lstrip": false,
      "rstrip": false,
      "normalized": false,
      "special": true
    }
  ],
  "normalizer": null,
  "pre_tokenizer": {
    "type": "Whitespace"
  },
  "post_processor": {
    "type": "TemplateProcessing",
    "single": [
      {
        "SpecialToken": {
          "id": "<bos>",
          "type_id": 0
        }
      },
      {
        "Sequence": {
          "id": "A",
          "type_id": 0
        }
      },
      {
        "SpecialToken": {
          "id": "<eos>",
          "type_id": 0
        }
      }
    ],
    "pair": [
      {
        "Sequence": {
          "id": "A",
          "type_id": 0
        }
      },
      {
        "Sequence": {
          "id": "B",
          "type_id": 1
        }
      }
    ],
    "special_tokens": {
      "<bos>": {
        "id": "<bos>",
        "ids": [
          1
        ],
        "tokens": [
          "<bos>"
        ]
      },
      "<eos>": {
        "id": "<eos>",
        "ids": [
          2
        ],
        "tokens": [
          "<eos>"
        ]
      }
    }
  },
  "decoder": {
    "type": "WordPiece",
    "prefix": "##",
    "cleanup": true
  },
  "model": {
    "type": "WordPiece",
    "unk_token": "<unk>",
    "continuing_subword_prefix": "##",
    "max_input_chars_per_word": 100,
    "vocab": {
      "<unk>": 0,
      "<bos>": 1,
      "<eos>": 2,
      "<pad>": 3,
      "!": 4,
      "\"": 5,
      "#": 6,
      "$": 7,
      "%": 8,
      "&": 9,
      "'": 10,
      "(": 11,
      ")": 12,
      "*": 13,
      "+": 14,
      ",": 15,
      "-": 16,
      ".": 17,
      "/": 18,
      "0": 19,
      "1": 20,
      "2": 21,
      "3": 22,
      "4": 23,
      "5": 24,
      "6": 25,
      "7": 26,
      "8": 27,
      "9": 28,
      ":": 29,
      ";": 30,
      "=": 31,
      "?": 32,
      "@": 33,
      "A": 34,
      "B": 35,
      "C": 36,
      "D": 37,
      "E": 38,
      "F": 39,
      "G": 40,
      "H": 41,
      "I": 42,
      "J": 43,
      "K": 44,
      "L": 45,
      "M": 46,
      "N": 47,
      "O": 48,
      "P": 49,
      "Q": 50,
      "R": 51,
      "S": 52,
      "T": 53,
      "U": 54,
      "V": 55,
      "W": 56,
      "X": 57,
      "Y": 58,
      "Z": 59,
      "[": 60,
      "]": 61,
      "^": 62,
      "_": 63,
      "`": 64,
      "a": 65,
      "b": 66,
      "c": 67,
      "d": 68,
      "e": 69,
      "f": 70,
      "g": 71,
      "h": 72,
      "i": 73,
      "j": 74,
      "k": 75,
      "l": 76,
      "m": 77,
      "n": 78,
      "o": 79,
      "p": 80,
      "q": 81,
      "r": 82,
      "s": 83,
      "t": 84,
      "u": 85,
      "v": 86,
      "w": 87,
      "x": 88,
      "y": 89,
      "z": 90,
      "": 91,
      "": 92,
      "": 93,
      "": 94,
      "": 95,
      "": 96,
      "¡": 97,
      "£": 98,
      "¥": 99,
      "©": 100,
      "«": 101,
      "­": 102,
      "®": 103,
      "°": 104,
      "²": 105,
      "³": 106,
      "´": 107,
      "¶": 108,
      "º": 109,
      "»": 110,
      "¼": 111,
      "½": 112,
      "¾": 113,
      "Á": 114,
      "Ä": 115,
      "Å": 116,
      "Ç": 117,
      "É": 118,
      "Ö": 119,
      "×": 120,
      "Ü": 121,
      "ß": 122,
      "à": 123,
      "á": 124,
      "â": 125,
      "ã": 126,
      "ä": 127,
      "ç": 128,
      "è": 129,
      "é": 130,
      "ê": 131,
      "ë": 132,
      "í": 133,
      "ï": 134,
      "ñ": 135,
      "ò": 136,
      "ó": 137,
      "ô": 138,
      "ö": 139,
      "ø": 140,
      "ù": 141,
      "ú": 142,
      "ü": 143,
      "ý": 144,
      "ā": 145,
      "ć": 146,
      "Č": 147,
      "ē": 148,
      "ě": 149,
      "ī": 150,
      "œ": 151,
      "š": 152,
      "ū": 153,
      "Ű": 154,
      "β": 155,
      "к": 156,
      "Ӓ": 157,
      "ย": 158,
      "ร": 159,
      "อ": 160,
      "่": 161,
      "‒": 162,
      "–": 163,
      "—": 164,
      "‘": 165,
      "’": 166,
      "‚": 167,
      "“": 168,
      "”": 169,
      "„": 170,
      "‟": 171,
      "…": 172,
      "‹": 173,
      "›": 174,
      "€": 175,
      "™": 176,
      "♪": 177,
      "♫": 178,
      "你": 179,
      "葱": 180,
      "送": 181,
      "﻿": 182,
      "，": 183,
      "##o": 184,
      "##y": 185,
      "##a": 186,
      "##g": 187,
      "##e": 188,
      "##u": 189,
      "##r": 190,
      "##s": 191,
      "##i": 192,
      "##b": 193,
      "##n": 194,
      "##t": 195,
      "##h": 196,
      "##c": 197,
      "##z": 198,
      "##m": 199,
      "##l": 200,
      "##d": 201,
      "##ó": 202,
      "##ß": 203,
      "##T": 204,
      "##P": 205,
      "##f": 206,
      "##v": 207,
      "##ä": 208,
      "##p": 209,
      "##ö": 210,
      "##x": 211,
      "##w": 212,
      "##k": 213,
      "##ü": 214,
      "##R": 215,
      "##6": 216,
      "##0": 217,
      "##q": 218,
      "##j": 219,
      "##2": 220,
      "##5": 221,
      "##«": 222,
      "##,": 223,
      "##B": 224,
      "##N": 225,
      "##I": 226,
      "##A": 227,
      "##D": 228,
      "##\"": 229,
      "##.": 230,
      "##1": 231,
      "##Z": 232,
      "##E": 233,
      "##8": 234,
      "##4": 235,
      "##L": 236,
      "##7": 237,
      "##3": 238,
      "##W": 239,
      "##U": 240,
      "##è": 241,
      "##C": 242,
      "##M": 243,
      "##[": 244,
      "##K": 245,
      "##9": 246,
      "##!": 247,
      "##G": 248,
      "##©": 249,
      "##S": 250,
      "##V": 251,
      "##O": 252,
      "##é": 253,
      "##ú": 254,
      "##í": 255,
      "##H": 256,
      "##β": 257,
      "##F": 258,
      "##?": 259,
      "##ã": 260,
      "##“": 261,
      "##+": 262,
      "##'": 263,
      "##ñ": 264,
      "##:": 265,
      "##J": 266,
      "##-": 267,
      "##—": 268,
      "##ø": 269,
      "##á": 270,
      "##ć": 271,
      "##@": 272,
      "##Y": 273,
      "##X": 274,
      "##à": 275,
      "##♪": 276,
      "##;": 277,
      "##”": 278,
      "##]": 279,
      "##‹": 280,
      "##…": 281,
      "##ï": 282,
      "##♫": 283,
      "##Q": 284,
      "##ē": 285,
      "##ê": 286,
      "##&": 287,
      "##–": 288,
      "##„": 289,
      "##»": 290,
      "###": 291,
      "##`": 292,
      "##_": 293,
      "##ç": 294,
      "##)": 295,
      "##/": 296,
      "##‘": 297,
      "##%": 298,
      "##ë": 299,
      "##=": 300,
      "##$": 301,
      "##‟": 302,
      "##Ü": 303,
      "##ô": 304,
      "##™": 305,
      "##ā": 306,
      "##¶": 307,
      "##½": 308,
      "##¼": 309,
      "##â": 310,
      "##ò": 311,
      "##‚": 312,
      "##ù": 313,
      "##你": 314,
      "##葱": 315,
      "##š": 316,
      "##ě": 317,
      "##Ä": 318,
      "##ý": 319,
      "##": 320,
      "##ร": 321,
      "##่": 322,
      "##อ": 323,
      "##ย": 324,
      "##ū": 325,
      "##ī": 326,
      "##¥": 327,
      "##en": 328,
      "##er": 329,
      "##ch": 330,
      "##in": 331,
      "th": 332,
      "##nd": 333,
      "##ie": 334,
      "##at": 335,
      "##st": 336,
      "the": 337,
      "##an": 338,
      "##on": 339,
      "##as": 340,
      "##it": 341,
      "##es": 342,
      "##ll": 343,
      "##or": 344,
      "##ar": 345,
      "##ou": 346,
      "##ich": 347,
      "in": 348,
      "##ing": 349,
      "##is": 350,
      "die": 351,
      "##re": 352,
      "##te": 353,
      "to": 354,
      "##le": 355,
      "##ir": 356,
      "ein": 357,
      "##al": 358,
      "of": 359,
      "and": 360,
      "##om": 361,
      "##ed": 362,
      "##ig": 363,
      "be": 364,
      "##se": 365,
      "und": 366,
      "##un": 367,
      "##ut": 368,
      "##ur": 369,
      "##et": 370,
      "das": 371,
      "##ion": 372,
      "that": 373,
      "##el": 374,
      "ha": 375,
      "##ere": 376,
      "we": 377,
      "##em": 378,
      "##au": 379,
      "##ic": 380,
      "##ent": 381,
      "##ro": 382,
      "you": 383,
      "der": 384,
      "wh": 385,
      "zu": 386,
      "##hr": 387,
      "is": 388,
      "wir": 389,
      "au": 390,
      "##ten": 391,
      "##ow": 392,
      "##am": 393,
      "##il": 394,
      "ist": 395,
      "##ach": 396,
      "it": 397,
      "##ot": 398,
      "se": 399,
      "##icht": 400,
      "an": 401,
      "##ag": 402,
      "##ve": 403,
      "re": 404,
      "##ber": 405,
      "##ung": 406,
      "##de": 407,
      "##sch": 408,
      "##ier": 409,
      "##ter": 410,
      "##lich": 411,
      "##ben": 412,
      "##ind": 413,
      "so": 414,
      "##all": 415,
      "##ke": 416,
      "un": 417,
      "ver": 418,
      "on": 419,
      "ich": 420,
      "##ol": 421,
      "##im": 422,
      "Th": 423,
      "es": 424,
      "##ay": 425,
      "was": 426,
      "##ct": 427,
      "me": 428,
      "And": 429,
      "st": 430,
      "##ge": 431,
      "al": 432,
      "er": 433,
      "##ver": 434,
      "##id": 435,
      "##and": 436,
      "this": 437,
      "den": 438,
      "sie": 439,
      "Sie": 440,
      "##ür": 441,
      "##ck": 442,
      "##sen": 443,
      "##ld": 444,
      "##us": 445,
      "##den": 446,
      "##nen": 447,
      "all": 448,
      "##op": 449,
      "nicht": 450,
      "##be": 451,
      "##um": 452,
      "for": 453,
      "##ce": 454,
      "##ation": 455,
      "von": 456,
      "##ra": 457,
      "##gen": 458,
      "dass": 459,
      "--": 460,
      "##ht": 461,
      "eine": 462,
      "##ine": 463,
      "##ann": 464,
      "ab": 465,
      "ge": 466,
      "##ff": 467,
      "##ell": 468,
      "als": 469,
      "do": 470,
      "im": 471,
      "auf": 472,
      "Und": 473,
      "##der": 474,
      "##th": 475,
      "##ill": 476,
      "ne": 477,
      "li": 478,
      "mit": 479,
      "##hen": 480,
      "##ith": 481,
      "##ly": 482,
      "##ess": 483,
      "are": 484,
      "##nt": 485,
      "##ally": 486,
      "sch": 487,
      "man": 488,
      "wie": 489,
      "##isch": 490,
      "##ist": 491,
      "war": 492,
      "uns": 493,
      "go": 494,
      "have": 495,
      "So": 496,
      "with": 497,
      "##ul": 498,
      "##ers": 499,
      "they": 500,
      "##enn": 501,
      "##kt": 502,
      "##he": 503,
      "##men": 504,
      "he": 505,
      "sich": 506,
      "Ich": 507,
      "##ust": 508,
      "can": 509,
      "##we": 510,
      "##ft": 511,
      "as": 512,
      "fr": 513,
      "##ad": 514,
      "##out": 515,
      "wor": 516,
      "##os": 517,
      "##ab": 518,
      "##ern": 519,
      "pro": 520,
      "##ant": 521,
      "##ib": 522,
      "##od": 523,
      "sind": 524,
      "what": 525,
      "com": 526,
      "St": 527,
      "##und": 528,
      "##ön": 529,
      "sp": 530,
      "##ies": 531,
      "at": 532,
      "##ould": 533,
      "We": 534,
      "In": 535,
      "haben": 536,
      "##pp": 537,
      "für": 538,
      "##ort": 539,
      "##uch": 540,
      "about": 541,
      "ex": 542,
      "diese": 543,
      "hat": 544,
      "The": 545,
      "not": 546,
      "##ze": 547,
      "##ien": 548,
      "aus": 549,
      "##ik": 550,
      "le": 551,
      "um": 552,
      "##iv": 553,
      "##iel": 554,
      "de": 555,
      "##og": 556,
      "##ok": 557,
      "##ah": 558,
      "or": 559,
      "##art": 560,
      "##oll": 561,
      "##ahr": 562,
      "Le": 563,
      "##ste": 564,
      "som": 565,
      "Das": 566,
      "über": 567,
      "des": 568,
      "##ne": 569,
      "kön": 570,
      "##ight": 571,
      "Es": 572,
      "Sch": 573,
      "##ore": 574,
      "##her": 575,
      "wer": 576,
      "ch": 577,
      "##ein": 578,
      "Wir": 579,
      "dem": 580,
      "my": 581,
      "there": 582,
      "pe": 583,
      "##mer": 584,
      "ma": 585,
      "##ate": 586,
      "dies": 587,
      "##ink": 588,
      "It": 589,
      "##ive": 590,
      "##ople": 591,
      "con": 592,
      ".\"": 593,
      "Be": 594,
      "##igen": 595,
      "lo": 596,
      "##och": 597,
      "tr": 598,
      "Er": 599,
      "sh": 600,
      "one": 601,
      "##ity": 602,
      "like": 603,
      "people": 604,
      "da": 605,
      "##ap": 606,
      "from": 607,
      "##ute": 608,
      "##elt": 609,
      "##esch": 610,
      "##ure": 611,
      "##00": 612,
      "##ear": 613,
      "ar": 614,
      "##age": 615,
      "##ause": 616,
      "##ass": 617,
      "##ang": 618,
      "also": 619,
      "wenn": 620,
      "##now": 621,
      "bec": 622,
      "##ast": 623,
      "but": 624,
      "Die": 625,
      "Ge": 626,
      "our": 627,
      "us": 628,
      "einen": 629,
      "##ensch": 630,
      "##ieren": 631,
      "out": 632,
      "##zen": 633,
      "get": 634,
      "##hl": 635,
      "know": 636,
      "Pro": 637,
      "just": 638,
      "ih": 639,
      "##sten": 640,
      "##ue": 641,
      "Ar": 642,
      "thing": 643,
      "können": 644,
      "##ken": 645,
      "pl": 646,
      "##fe": 647,
      "werden": 648,
      "oder": 649,
      "them": 650,
      "up": 651,
      "##ungen": 652,
      "But": 653,
      "int": 654,
      "##iert": 655,
      "vor": 656,
      "##ild": 657,
      "##etz": 658,
      "##end": 659,
      "##oug": 660,
      "her": 661,
      "these": 662,
      "very": 663,
      "##ru": 664,
      "if": 665,
      "mo": 666,
      "think": 667,
      "##our": 668,
      "sein": 669,
      "who": 670,
      "sag": 671,
      "Ver": 672,
      "##ng": 673,
      "te": 674,
      "##ite": 675,
      "##per": 676,
      "##one": 677,
      "##orm": 678,
      "##ain": 679,
      "##ted": 680,
      "##ound": 681,
      "mach": 682,
      "##ige": 683,
      "Al": 684,
      "kann": 685,
      "aber": 686,
      "by": 687,
      "##ick": 688,
      "##aus": 689,
      "##ob": 690,
      "Re": 691,
      "going": 692,
      "##iz": 693,
      "auch": 694,
      "Mensch": 695,
      "##tw": 696,
      "year": 697,
      "ent": 698,
      "##ack": 699,
      "br": 700,
      "einer": 701,
      "gen": 702,
      "##fen": 703,
      "Aber": 704,
      "see": 705,
      "##ät": 706,
      "##ame": 707,
      "##zu": 708,
      "act": 709,
      "some": 710,
      "einem": 711,
      "sa": 712,
      "when": 713,
      "##ial": 714,
      "##ibt": 715,
      "##eren": 716,
      "dar": 717,
      "nach": 718,
      "your": 719,
      "because": 720,
      "di": 721,
      "##chen": 722,
      "mein": 723,
      "nur": 724,
      "##ide": 725,
      "##scha": 726,
      "had": 727,
      "more": 728,
      "##olog": 729,
      "##pt": 730,
      "Un": 731,
      "##ans": 732,
      "##ert": 733,
      "##ard": 734,
      "tim": 735,
      "##ose": 736,
      "wird": 737,
      "etw": 738,
      "##pl": 739,
      "sehr": 740,
      "Te": 741,
      "##ud": 742,
      "hier": 743,
      "will": 744,
      "##ank": 745,
      "Fr": 746,
      "would": 747,
      "##ischen": 748,
      "##ble": 749,
      "Menschen": 750,
      "am": 751,
      "ve": 752,
      "which": 753,
      "ever": 754,
      "##ner": 755,
      "##ör": 756,
      "##ück": 757,
      "##itt": 758,
      "##urch": 759,
      "look": 760,
      "##ple": 761,
      "##ise": 762,
      "were": 763,
      "##ond": 764,
      "##reat": 765,
      "##pr": 766,
      "their": 767,
      "really": 768,
      "how": 769,
      "##ually": 770,
      "mich": 771,
      "fe": 772,
      "##ous": 773,
      "work": 774,
      "##keit": 775,
      "##äch": 776,
      "gibt": 777,
      "##änd": 778,
      "##hing": 779,
      "##issen": 780,
      "##if": 781,
      "An": 782,
      "Jahr": 783,
      "You": 784,
      "##ak": 785,
      "##hal": 786,
      "per": 787,
      "##wo": 788,
      "wur": 789,
      "way": 790,
      "dann": 791,
      "gro": 792,
      "##lau": 793,
      "##lle": 794,
      "vie": 795,
      "gr": 796,
      "##ong": 797,
      "here": 798,
      "##ug": 799,
      "##sel": 800,
      "Ih": 801,
      "##ect": 802,
      "time": 803,
      "##heit": 804,
      "##ven": 805,
      "has": 806,
      "world": 807,
      "##ace": 808,
      "This": 809,
      "ste": 810,
      "noch": 811,
      "##ment": 812,
      "##lie": 813,
      "##ions": 814,
      "##ater": 815,
      "##ther": 816,
      "ihr": 817,
      "etwas": 818,
      "Wh": 819,
      "then": 820,
      "##chn": 821,
      "##ommen": 822,
      "pr": 823,
      "##eit": 824,
      "##ia": 825,
      "##gr": 826,
      "##ough": 827,
      "mir": 828,
      "##blem": 829,
      "Ein": 830,
      "Welt": 831,
      "##act": 832,
      "Als": 833,
      "don": 834,
      "every": 835,
      "##ens": 836,
      "sehen": 837,
      "into": 838,
      "##schaft": 839,
      "habe": 840,
      "##ip": 841,
      "##ac": 842,
      "##are": 843,
      "##ign": 844,
      "actually": 845,
      "say": 846,
      "##yst": 847,
      "could": 848,
      "##beit": 849,
      "##du": 850,
      "dieser": 851,
      "bet": 852,
      "mehr": 853,
      "##alk": 854,
      "ke": 855,
      "want": 856,
      "zur": 857,
      "durch": 858,
      "##stell": 859,
      "en": 860,
      "##tern": 861,
      "##ische": 862,
      "things": 863,
      "where": 864,
      "##br": 865,
      "years": 866,
      "now": 867,
      "mus": 868,
      "jed": 869,
      "Se": 870,
      "##ystem": 871,
      "other": 872,
      "Wenn": 873,
      "did": 874,
      "##lichen": 875,
      "Now": 876,
      "##ult": 877,
      "##ub": 878,
      "##rei": 879,
      "viel": 880,
      "ag": 881,
      "##acht": 882,
      "somet": 883,
      "##etzt": 884,
      "Leben": 885,
      "sc": 886,
      "##qu": 887,
      "Sp": 888,
      "alle": 889,
      "##fr": 890,
      "They": 891,
      "##ical": 892,
      "been": 893,
      "##liche": 894,
      "cl": 895,
      "##form": 896,
      "##cht": 897,
      "any": 898,
      "Ch": 899,
      "##üs": 900,
      "bei": 901,
      "Gr": 902,
      "diff": 903,
      "##ome": 904,
      "##agen": 905,
      "make": 906,
      "happ": 907,
      "##inge": 908,
      "res": 909,
      "Zeit": 910,
      "He": 911,
      "no": 912,
      "ob": 913,
      "##auen": 914,
      "##fl": 915,
      "##ile": 916,
      "Au": 917,
      "comp": 918,
      "##ph": 919,
      "need": 920,
      "##ake": 921,
      "find": 922,
      "gan": 923,
      "##ungs": 924,
      "##är": 925,
      "##me": 926,
      "##klich": 927,
      "wurde": 928,
      "zum": 929,
      "said": 930,
      "##rie": 931,
      "mö": 932,
      "##hn": 933,
      "##gan": 934,
      "##fach": 935,
      "##sam": 936,
      "part": 937,
      "unsere": 938,
      "wo": 939,
      "##ry": 940,
      "##irst": 941,
      "##ice": 942,
      "right": 943,
      "##wer": 944,
      "wür": 945,
      "##ree": 946,
      "over": 947,
      "Ihnen": 948,
      "##ory": 949,
      "##fü": 950,
      "##ßen": 951,
      "##mt": 952,
      "##ähr": 953,
      "unter": 954,
      "something": 955,
      "sel": 956,
      "zwe": 957,
      "##iver": 958,
      "##ient": 959,
      "dr": 960,
      "ges": 961,
      "machen": 962,
      "back": 963,
      "##assen": 964,
      "two": 965,
      "##ange": 966,
      "##illion": 967,
      "##ount": 968,
      "Gesch": 969,
      "po": 970,
      "##iter": 971,
      "##able": 972,
      "##als": 973,
      "ihre": 974,
      "call": 975,
      "got": 976,
      "Ne": 977,
      "##chnolog": 978,
      "much": 979,
      "than": 980,
      "wirklich": 981,
      "bu": 982,
      "tun": 983,
      "kind": 984,
      "##ys": 985,
      "bl": 986,
      "einfach": 987,
      "immer": 988,
      "meine": 989,
      "Kind": 990,
      "those": 991,
      "##ark": 992,
      "first": 993,
      "##ations": 994,
      "##red": 995,
      "Was": 996,
      "##aten": 997,
      "##ittle": 998,
      "weil": 999,
      "co": 1000,
      "##bst": 1001,
      "little": 1002,
      "Also": 1003,
      "kon": 1004,
      "##erson": 1005,
      "##ffen": 1006,
      "##erst": 1007,
      "Or": 1008,
      "imp": 1009,
      "new": 1010,
      "lot": 1011,
      "##ingen": 1012,
      "##own": 1013,
      "qu": 1014,
      "woll": 1015,
      "fü": 1016,
      "inter": 1017,
      "##ale": 1018,
      "That": 1019,
      "##ord": 1020,
      "?\"": 1021,
      "##ats": 1022,
      "##cent": 1023,
      "##chte": 1024,
      "soll": 1025,
      "tra": 1026,
      "spe": 1027,
      "##way": 1028,
      "ind": 1029,
      "##iger": 1030,
      "Man": 1031,
      "hatte": 1032,
      "müs": 1033,
      "##che": 1034,
      "##vel": 1035,
      "ac": 1036,
      "##sp": 1037,
      "##eln": 1038,
      "ze": 1039,
      "bis": 1040,
      "kom": 1041,
      "##hmen": 1042,
      "##ves": 1043,
      "dis": 1044,
      "##ody": 1045,
      "ph": 1046,
      "talk": 1047,
      "##ied": 1048,
      "##ase": 1049,
      "dieses": 1050,
      "##nte": 1051,
      "unser": 1052,
      "most": 1053,
      "000": 1054,
      "kle": 1055,
      "##ving": 1056,
      "life": 1057,
      "##ath": 1058,
      "su": 1059,
      "only": 1060,
      "dam": 1061,
      "she": 1062,
      "##leich": 1063,
      "##ely": 1064,
      "keine": 1065,
      "##ition": 1066,
      "Leute": 1067,
      "ad": 1068,
      "real": 1069,
      "What": 1070,
      "beg": 1071,
      "##ance": 1072,
      "##ated": 1073,
      "wissen": 1074,
      "gl": 1075,
      "day": 1076,
      "hum": 1077,
      "##aut": 1078,
      "##ktion": 1079,
      "##ents": 1080,
      "his": 1081,
      "müssen": 1082,
      "19": 1083,
      "star": 1084,
      "Art": 1085,
      "even": 1086,
      "gut": 1087,
      "##ish": 1088,
      "cont": 1089,
      "##erent": 1090,
      "##mal": 1091,
      "##itte": 1092,
      "diesem": 1093,
      "##bar": 1094,
      "##iß": 1095,
      "viele": 1096,
      "thr": 1097,
      "##inn": 1098,
      "##xt": 1099,
      "waren": 1100,
      "take": 1101,
      "Ges": 1102,
      "Vor": 1103,
      "different": 1104,
      "##ger": 1105,
      "Dinge": 1106,
      "sagte": 1107,
      "fl": 1108,
      "sagen": 1109,
      "many": 1110,
      "20": 1111,
      "##ichte": 1112,
      "##igkeit": 1113,
      "pass": 1114,
      "##tz": 1115,
      "good": 1116,
      "lie": 1117,
      "andere": 1118,
      "diesen": 1119,
      "ide": 1120,
      "##ons": 1121,
      "bin": 1122,
      "Jahren": 1123,
      "groß": 1124,
      "##glich": 1125,
      "##unden": 1126,
      "down": 1127,
      "There": 1128,
      "bo": 1129,
      "vers": 1130,
      "does": 1131,
      "##gt": 1132,
      "##wn": 1133,
      "##int": 1134,
      "##ict": 1135,
      "##ahl": 1136,
      "hel": 1137,
      "Wie": 1138,
      "##other": 1139,
      "around": 1140,
      "##ont": 1141,
      "eines": 1142,
      "nat": 1143,
      "through": 1144,
      "##get": 1145,
      "zwei": 1146,
      "put": 1147,
      "##urn": 1148,
      "ll": 1149,
      "##ors": 1150,
      "##än": 1151,
      "jetzt": 1152,
      "hin": 1153,
      "##ri": 1154,
      "Aus": 1155,
      "Me": 1156,
      "10": 1157,
      "pre": 1158,
      "##gend": 1159,
      "kein": 1160,
      "gew": 1161,
      "Well": 1162,
      "anderen": 1163,
      "##ood": 1164,
      "bef": 1165,
      "##ität": 1166,
      "##ichtig": 1167,
      "bek": 1168,
      "wieder": 1169,
      "##ede": 1170,
      "being": 1171,
      "##amm": 1172,
      "##ty": 1173,
      "##ution": 1174,
      "show": 1175,
      "em": 1176,
      "##oc": 1177,
      "##iss": 1178,
      "off": 1179,
      "##über": 1180,
      "##ahre": 1181,
      "##cess": 1182,
      "##lleicht": 1183,
      "sol": 1184,
      "use": 1185,
      "##llen": 1186,
      "ro": 1187,
      "##ible": 1188,
      "glau": 1189,
      "Unter": 1190,
      "würde": 1191,
      "##aum": 1192,
      "tell": 1193,
      "##ience": 1194,
      "##wick": 1195,
      "alles": 1196,
      "##auf": 1197,
      "Der": 1198,
      "##ought": 1199,
      "##ren": 1200,
      "##ep": 1201,
      "##ary": 1202,
      "##av": 1203,
      "##ost": 1204,
      "Dies": 1205,
      "##ss": 1206,
      "##isten": 1207,
      "comm": 1208,
      "problem": 1209,
      "du": 1210,
      "##vol": 1211,
      "##oss": 1212,
      "selbst": 1213,
      "happen": 1214,
      "same": 1215,
      "##ious": 1216,
      "Ind": 1217,
      "inc": 1218,
      "Ent": 1219,
      "damit": 1220,
      "##ähl": 1221,
      "##igt": 1222,
      "best": 1223,
      "##ual": 1224,
      "Problem": 1225,
      "try": 1226,
      "##äu": 1227,
      "##rain": 1228,
      "##ekt": 1229,
      "end": 1230,
      "fact": 1231,
      "##ars": 1232,
      "Pl": 1233,
      "sm": 1234,
      "wen": 1235,
      "##igh": 1236,
      "stud": 1237,
      "##yp": 1238,
      "ins": 1239,
      "come": 1240,
      "##arn": 1241,
      "gem": 1242,
      "##ian": 1243,
      "##ower": 1244,
      "##off": 1245,
      "fun": 1246,
      "##ism": 1247,
      "##att": 1248,
      "geht": 1249,
      "##ject": 1250,
      "Jahre": 1251,
      "##ful": 1252,
      "doing": 1253,
      "##amil": 1254,
      "If": 1255,
      "human": 1256,
      "count": 1257,
      "##hren": 1258,
      "##ese": 1259,
      "##ds": 1260,
      "##tet": 1261,
      "##ache": 1262,
      "##äng": 1263,
      "##fter": 1264,
      "three": 1265,
      "may": 1266,
      "Auf": 1267,
      "##day": 1268,
      "##omen": 1269,
      "##nis": 1270,
      "##ction": 1271,
      "hal": 1272,
      "##ically": 1273,
      "##formation": 1274,
      "big": 1275,
      "##ire": 1276,
      "zurück": 1277,
      "##halten": 1278,
      "gesch": 1279,
      "bas": 1280,
      "##ail": 1281,
      "##ces": 1282,
      "##iden": 1283,
      "lang": 1284,
      "sur": 1285,
      "nie": 1286,
      "##ade": 1287,
      "muss": 1288,
      "system": 1289,
      "denn": 1290,
      "Um": 1291,
      "versch": 1292,
      "start": 1293,
      "Her": 1294,
      "weiter": 1295,
      "##ved": 1296,
      "percent": 1297,
      "##uest": 1298,
      "##uss": 1299,
      "hand": 1300,
      "sim": 1301,
      "called": 1302,
      "##ndern": 1303,
      "##äre": 1304,
      "dec": 1305,
      "##utz": 1306,
      "Zu": 1307,
      "well": 1308,
      "##ics": 1309,
      "##ellen": 1310,
      "##ting": 1311,
      "produ": 1312,
      "Amer": 1313,
      "let": 1314,
      "Fl": 1315,
      "##öß": 1316,
      "ger": 1317,
      "ask": 1318,
      "schon": 1319,
      "zw": 1320,
      "##nerg": 1321,
      "rel": 1322,
      "##its": 1323,
      "##ize": 1324,
      "pol": 1325,
      "##self": 1326,
      "##ächlich": 1327,
      "gu": 1328,
      "##thing": 1329,
      "##isp": 1330,
      "build": 1331,
      "klein": 1332,
      "heraus": 1333,
      "app": 1334,
      "pa": 1335,
      "ir": 1336,
      "##geb": 1337,
      "##rit": 1338,
      "##ster": 1339,
      "great": 1340,
      "exper": 1341,
      "bes": 1342,
      "ben": 1343,
      "dav": 1344,
      "##nten": 1345,
      "##les": 1346,
      "##zent": 1347,
      "möchte": 1348,
      "##lt": 1349,
      "##ierte": 1350,
      "##ating": 1351,
      "##ler": 1352,
      "ganz": 1353,
      "made": 1354,
      "again": 1355,
      "200": 1356,
      "##ieden": 1357,
      "child": 1358,
      "##sche": 1359,
      "Bl": 1360,
      "Teil": 1361,
      "ihnen": 1362,
      "quest": 1363,
      "##teil": 1364,
      "vielleicht": 1365,
      "##io": 1366,
      "technolog": 1367,
      "ele": 1368,
      "##ork": 1369,
      "Nun": 1370,
      "Arbeit": 1371,
      "##ool": 1372,
      "zusam": 1373,
      "##ges": 1374,
      "##ock": 1375,
      "mak": 1376,
      "Afr": 1377,
      "##ates": 1378,
      "Ide": 1379,
      "##erm": 1380,
      "##az": 1381,
      "import": 1382,
      "long": 1383,
      "##ull": 1384,
      "zusammen": 1385,
      "##ivers": 1386,
      "##bt": 1387,
      "##erest": 1388,
      "##ities": 1389,
      "trans": 1390,
      "rem": 1391,
      "##fer": 1392,
      "##stehen": 1393,
      "Land": 1394,
      "##kl": 1395,
      "should": 1396,
      "##cial": 1397,
      "##eld": 1398,
      "##fahr": 1399,
      "Kinder": 1400,
      "versuch": 1401,
      "For": 1402,
      "##atsächlich": 1403,
      "Gen": 1404,
      "sec": 1405,
      "##alt": 1406,
      "beh": 1407,
      "brau": 1408,
      "Ab": 1409,
      "why": 1410,
      "own": 1411,
      "learn": 1412,
      "cour": 1413,
      "##ün": 1414,
      "##esen": 1415,
      "##inden": 1416,
      "davon": 1417,
      "##rä": 1418,
      "All": 1419,
      "##hne": 1420,
      "##entlich": 1421,
      "##ings": 1422,
      "Im": 1423,
      "##ielen": 1424,
      "Wissen": 1425,
      "##oment": 1426,
      "verb": 1427,
      "car": 1428,
      "underst": 1429,
      "person": 1430,
      "turn": 1431,
      "Hier": 1432,
      "##ek": 1433,
      "##angen": 1434,
      "Grund": 1435,
      "Tag": 1436,
      "##pro": 1437,
      "wel": 1438,
      "gleich": 1439,
      "##old": 1440,
      "##uten": 1441,
      "##achte": 1442,
      "##ational": 1443,
      "Beisp": 1444,
      "##ope": 1445,
      "##zie": 1446,
      "heute": 1447,
      "brain": 1448,
      "Ste": 1449,
      "change": 1450,
      "hatten": 1451,
      "fin": 1452,
      "Reg": 1453,
      "rec": 1454,
      "mean": 1455,
      "##vor": 1456,
      "##uter": 1457,
      "Geschichte": 1458,
      "##anet": 1459,
      "genau": 1460,
      "today": 1461,
      "##ubl": 1462,
      "important": 1463,
      "after": 1464,
      "Bild": 1465,
      "thought": 1466,
      "letz": 1467,
      "didn": 1468,
      "feel": 1469,
      "play": 1470,
      "belie": 1471,
      "Thank": 1472,
      "interest": 1473,
      "##halb": 1474,
      "str": 1475,
      "idea": 1476,
      "##onom": 1477,
      "##weise": 1478,
      "Fre": 1479,
      "last": 1480,
      "Nach": 1481,
      "red": 1482,
      "creat": 1483,
      "##ichten": 1484,
      "##anden": 1485,
      "##ular": 1486,
      "##rechen": 1487,
      "##achen": 1488,
      "##äh": 1489,
      "könnte": 1490,
      "jem": 1491,
      "started": 1492,
      "ihn": 1493,
      "##gar": 1494,
      "Diese": 1495,
      "design": 1496,
      "##ix": 1497,
      "##ica": 1498,
      "its": 1499,
      "##hör": 1500,
      "##atz": 1501,
      "##land": 1502,
      "##body": 1503,
      "dort": 1504,
      "him": 1505,
      "drei": 1506,
      "exam": 1507,
      "##äd": 1508,
      "##mlich": 1509,
      "bit": 1510,
      "##orn": 1511,
      "einz": 1512,
      "einige": 1513,
      "wollen": 1514,
      "##hir": 1515,
      "##oren": 1516,
      "##schen": 1517,
      "##olle": 1518,
      "##omp": 1519,
      "##imm": 1520,
      "ext": 1521,
      "##ennen": 1522,
      "##utzen": 1523,
      "old": 1524,
      "went": 1525,
      "##aw": 1526,
      "##vent": 1527,
      "paar": 1528,
      "kl": 1529,
      "meiner": 1530,
      "before": 1531,
      "eff": 1532,
      "Kl": 1533,
      "still": 1534,
      "understand": 1535,
      "course": 1536,
      "might": 1537,
      "##anz": 1538,
      "gehen": 1539,
      "help": 1540,
      "wurden": 1541,
      "##pen": 1542,
      "##reich": 1543,
      "give": 1544,
      "nun": 1545,
      "##asser": 1546,
      "neu": 1547,
      "##for": 1548,
      "better": 1549,
      "schw": 1550,
      "##atur": 1551,
      "darüber": 1552,
      "able": 1553,
      "##ility": 1554,
      "med": 1555,
      "another": 1556,
      "##ave": 1557,
      "werde": 1558,
      "never": 1559,
      "##bei": 1560,
      "##bs": 1561,
      "story": 1562,
      "power": 1563,
      "cons": 1564,
      "##ists": 1565,
      "bess": 1566,
      "##erv": 1567,
      "tatsächlich": 1568,
      "sondern": 1569,
      "##ina": 1570,
      "##ander": 1571,
      "point": 1572,
      "##zähl": 1573,
      "min": 1574,
      "##nde": 1575,
      "Tr": 1576,
      "##umber": 1577,
      "##schein": 1578,
      "Br": 1579,
      "##agt": 1580,
      "found": 1581,
      "##ott": 1582,
      "##ital": 1583,
      "mon": 1584,
      "verw": 1585,
      "weiß": 1586,
      "Mo": 1587,
      "##iten": 1588,
      "Beispiel": 1589,
      "##für": 1590,
      "mal": 1591,
      "zie": 1592,
      "##ürlich": 1593,
      "such": 1594,
      "##ährend": 1595,
      "##str": 1596,
      "besch": 1597,
      "##..": 1598,
      "##ogra": 1599,
      "sl": 1600,
      "Des": 1601,
      "sort": 1602,
      "##nehmen": 1603,
      "wahr": 1604,
      "Intern": 1605,
      "Ihre": 1606,
      "gab": 1607,
      "Aut": 1608,
      "Mit": 1609,
      "unserer": 1610,
      "ago": 1611,
      "##ha": 1612,
      "##allen": 1613,
      "kid": 1614,
      "##pf": 1615,
      "Ph": 1616,
      "Gehir": 1617,
      "##ts": 1618,
      "eigen": 1619,
      "seine": 1620,
      "exp": 1621,
      "##kay": 1622,
      "##ins": 1623,
      "##stellen": 1624,
      "##fol": 1625,
      "100": 1626,
      "ec": 1627,
      "##oth": 1628,
      "toget": 1629,
      "bede": 1630,
      "Kr": 1631,
      "##ather": 1632,
      "together": 1633,
      "##ym": 1634,
      "next": 1635,
      "##amen": 1636,
      "school": 1637,
      "##iven": 1638,
      ",\"": 1639,
      "water": 1640,
      "leben": 1641,
      "New": 1642,
      "##alth": 1643,
      "How": 1644,
      "Geb": 1645,
      "##ward": 1646,
      "wäre": 1647,
      "Kon": 1648,
      "came": 1649,
      "pat": 1650,
      "gel": 1651,
      "neue": 1652,
      "place": 1653,
      "##änder": 1654,
      "##ata": 1655,
      "##ov": 1656,
      "##ited": 1657,
      "commun": 1658,
      "größ": 1659,
      "dazu": 1660,
      "vom": 1661,
      "##velop": 1662,
      "##ween": 1663,
      "Wer": 1664,
      "##gel": 1665,
      "imag": 1666,
      "few": 1667,
      "arbeit": 1668,
      "##rat": 1669,
      "##volution": 1670,
      "##gest": 1671,
      "denke": 1672,
      "comple": 1673,
      "##ED": 1674,
      "De": 1675,
      "Million": 1676,
      "##cted": 1677,
      "##achten": 1678,
      "##cken": 1679,
      "hät": 1680,
      "number": 1681,
      "When": 1682,
      "Lebens": 1683,
      "Hand": 1684,
      "...": 1685,
      "War": 1686,
      "##öglich": 1687,
      "Technolog": 1688,
      "finden": 1689,
      "denken": 1690,
      "##read": 1691,
      "Med": 1692,
      "entwick": 1693,
      "used": 1694,
      "kommen": 1695,
      "Mal": 1696,
      "##gef": 1697,
      "50": 1698,
      "sogar": 1699,
      "wichtig": 1700,
      "technology": 1701,
      "##bo": 1702,
      "30": 1703,
      "denen": 1704,
      "between": 1705,
      "##anted": 1706,
      "##ittel": 1707,
      "each": 1708,
      "eng": 1709,
      "##eter": 1710,
      "gegen": 1711,
      "macht": 1712,
      "einmal": 1713,
      "glob": 1714,
      "##ized": 1715,
      "15": 1716,
      "verl": 1717,
      "develop": 1718,
      "Internet": 1719,
      "question": 1720,
      "##iness": 1721,
      "four": 1722,
      "zwischen": 1723,
      "gerade": 1724,
      "Is": 1725,
      "cent": 1726,
      "fast": 1727,
      "gemacht": 1728,
      "organ": 1729,
      "looking": 1730,
      "Gl": 1731,
      "##ines": 1732,
      "##co": 1733,
      "##bl": 1734,
      "Ex": 1735,
      "Ihr": 1736,
      "Frage": 1737,
      "set": 1738,
      "Frauen": 1739,
      "##tzen": 1740,
      "glaube": 1741,
      "##arbeit": 1742,
      "Stud": 1743,
      "small": 1744,
      "interess": 1745,
      "##gs": 1746,
      "geben": 1747,
      "Gehirn": 1748,
      "art": 1749,
      "kommt": 1750,
      "##ative": 1751,
      "too": 1752,
      "Wasser": 1753,
      "ohne": 1754,
      "##ember": 1755,
      "cre": 1756,
      "Bec": 1757,
      "##obot": 1758,
      "##ific": 1759,
      "Über": 1760,
      "##stru": 1761,
      "##ierung": 1762,
      "funktion": 1763,
      "##hrt": 1764,
      "ans": 1765,
      "##ways": 1766,
      "Fe": 1767,
      "erst": 1768,
      "example": 1769,
      "##atch": 1770,
      "Because": 1771,
      "run": 1772,
      "par": 1773,
      "##geben": 1774,
      "##arm": 1775,
      "bere": 1776,
      "##cy": 1777,
      "Pr": 1778,
      "##ika": 1779,
      "done": 1780,
      "##ium": 1781,
      "##kommen": 1782,
      "##itu": 1783,
      "expl": 1784,
      "weit": 1785,
      "##enden": 1786,
      "schn": 1787,
      "met": 1788,
      "grow": 1789,
      "el": 1790,
      "##affen": 1791,
      "TED": 1792,
      "partic": 1793,
      "bi": 1794,
      "vis": 1795,
      "form": 1796,
      "data": 1797,
      "cell": 1798,
      "näch": 1799,
      "live": 1800,
      "##ced": 1801,
      "gra": 1802,
      "nichts": 1803,
      "letzten": 1804,
      "##ably": 1805,
      "high": 1806,
      "##atter": 1807,
      "doesn": 1808,
      "women": 1809,
      "##cher": 1810,
      "love": 1811,
      "##aterial": 1812,
      "##els": 1813,
      "zeigen": 1814,
      "Ant": 1815,
      "ihren": 1816,
      "##unkt": 1817,
      "würden": 1818,
      "irgend": 1819,
      "##elle": 1820,
      "##ule": 1821,
      "dafür": 1822,
      "second": 1823,
      "##ps": 1824,
      "light": 1825,
      "##ationen": 1826,
      "gener": 1827,
      "konnte": 1828,
      "##tschaft": 1829,
      "##dem": 1830,
      "At": 1831,
      "##alen": 1832,
      "##ands": 1833,
      "bring": 1834,
      "passiert": 1835,
      "verschieden": 1836,
      "att": 1837,
      "ersten": 1838,
      "sieht": 1839,
      "jeder": 1840,
      "wanted": 1841,
      "Univers": 1842,
      "wr": 1843,
      "##ehen": 1844,
      "##zeit": 1845,
      "##aufen": 1846,
      "##chten": 1847,
      "million": 1848,
      "##immt": 1849,
      "Eine": 1850,
      "reg": 1851,
      "lar": 1852,
      "##ften": 1853,
      "famil": 1854,
      "sk": 1855,
      "##ement": 1856,
      "##gew": 1857,
      "As": 1858,
      "##anke": 1859,
      "whole": 1860,
      "##ures": 1861,
      "Schl": 1862,
      "##ikan": 1863,
      "poss": 1864,
      "chang": 1865,
      "Millionen": 1866,
      "verstehen": 1867,
      "Prozent": 1868,
      "erzähl": 1869,
      "##vers": 1870,
      "Mus": 1871,
      "reas": 1872,
      "##ross": 1873,
      "##ilm": 1874,
      "resp": 1875,
      "während": 1876,
      "trying": 1877,
      "care": 1878,
      "daran": 1879,
      "mag": 1880,
      "##ös": 1881,
      "##cept": 1882,
      "Comp": 1883,
      "polit": 1884,
      "Daten": 1885,
      "##ändern": 1886,
      "##led": 1887,
      "stu": 1888,
      "besser": 1889,
      "##sehen": 1890,
      "##under": 1891,
      "etwa": 1892,
      "My": 1893,
      "##ider": 1894,
      "##iele": 1895,
      "working": 1896,
      "sub": 1897,
      "away": 1898,
      "##oney": 1899,
      "##rupp": 1900,
      "phys": 1901,
      "norm": 1902,
      "tre": 1903,
      "##selves": 1904,
      "##ness": 1905,
      "read": 1906,
      "##schl": 1907,
      "always": 1908,
      "warum": 1909,
      "##unde": 1910,
      "gef": 1911,
      "econom": 1912,
      "##yn": 1913,
      "##fin": 1914,
      "begin": 1915,
      "lassen": 1916,
      "##ives": 1917,
      "dire": 1918,
      "sollte": 1919,
      "erste": 1920,
      "anim": 1921,
      "##ense": 1922,
      "children": 1923,
      "prob": 1924,
      "believe": 1925,
      "less": 1926,
      "##enten": 1927,
      "System": 1928,
      "##oy": 1929,
      "bus": 1930,
      "##essen": 1931,
      "##weg": 1932,
      "mensch": 1933,
      "##vest": 1934,
      "Mon": 1935,
      "cap": 1936,
      "Mar": 1937,
      "Da": 1938,
      "Idee": 1939,
      "sollten": 1940,
      "##net": 1941,
      "##ßer": 1942,
      "##fühl": 1943,
      "natürlich": 1944,
      "Person": 1945,
      "##gehen": 1946,
      "##alls": 1947,
      "##ideo": 1948,
      "##jekt": 1949,
      "Geld": 1950,
      "book": 1951,
      "##ma": 1952,
      "health": 1953,
      "country": 1954,
      "acc": 1955,
      "stand": 1956,
      "##ogen": 1957,
      "##wort": 1958,
      "##wir": 1959,
      "meinen": 1960,
      "##zeug": 1961,
      "##unk": 1962,
      "##ural": 1963,
      "cor": 1964,
      "##iff": 1965,
      "frien": 1966,
      "##ivid": 1967,
      "##stellt": 1968,
      "##ues": 1969,
      "supp": 1970,
      "Raum": 1971,
      "##uge": 1972,
      "##air": 1973,
      "meinem": 1974,
      "könnten": 1975,
      "##ischer": 1976,
      "schnell": 1977,
      "pict": 1978,
      "##illi": 1979,
      "ja": 1980,
      "wollte": 1981,
      "dre": 1982,
      "##ries": 1983,
      "##licher": 1984,
      "progr": 1985,
      "##schied": 1986,
      "five": 1987,
      "##ält": 1988,
      "meisten": 1989,
      "doll": 1990,
      "##sy": 1991,
      "##raft": 1992,
      "##akt": 1993,
      "große": 1994,
      "##ständ": 1995,
      "##ett": 1996,
      "ganze": 1997,
      "Am": 1998,
      "using": 1999,
      "##hip": 2000,
      "##err": 2001,
      "sicher": 2002,
      "Weg": 2003,
      "##ci": 2004,
      "space": 2005,
      "jemand": 2006,
      "aut": 2007,
      "##ote": 2008,
      "##isen": 2009,
      "abs": 2010,
      "Doll": 2011,
      "##los": 2012,
      "##here": 2013,
      "##vern": 2014,
      "##aces": 2015,
      "ear": 2016,
      "sprechen": 2017,
      "ziemlich": 2018,
      "Min": 2019,
      "##ilt": 2020,
      "means": 2021,
      "##dern": 2022,
      "##ären": 2023,
      "mind": 2024,
      "fre": 2025,
      "ihrer": 2026,
      "Okay": 2027,
      "Wo": 2028,
      "##uer": 2029,
      "thinking": 2030,
      "tak": 2031,
      "Spr": 2032,
      "##fte": 2033,
      "##row": 2034,
      "US": 2035,
      "bekommen": 2036,
      "##anken": 2037,
      "##ruck": 2038,
      "##öglichkeit": 2039,
      "##aff": 2040,
      "##adt": 2041,
      "##ernen": 2042,
      "##ief": 2043,
      "ging": 2044,
      "hard": 2045,
      "mod": 2046,
      "mark": 2047,
      "##lung": 2048,
      "##utet": 2049,
      "spec": 2050,
      "inst": 2051,
      "took": 2052,
      "gre": 2053,
      "##par": 2054,
      "kids": 2055,
      "One": 2056,
      "##ane": 2057,
      "information": 2058,
      "geb": 2059,
      "create": 2060,
      "Kom": 2061,
      "dabei": 2062,
      "sagt": 2063,
      "project": 2064,
      "kam": 2065,
      "open": 2066,
      "##asch": 2067,
      "under": 2068,
      "maybe": 2069,
      "eig": 2070,
      "home": 2071,
      "##utter": 2072,
      "##örper": 2073,
      "publ": 2074,
      "cr": 2075,
      "##itz": 2076,
      "##amer": 2077,
      "Dank": 2078,
      "##ever": 2079,
      "##ünd": 2080,
      "##ierten": 2081,
      "Ang": 2082,
      "##rop": 2083,
      "##hlen": 2084,
      "##press": 2085,
      "Ger": 2086,
      "##legen": 2087,
      "everything": 2088,
      "money": 2089,
      "ander": 2090,
      "##amp": 2091,
      "Mann": 2092,
      "hör": 2093,
      "arbeiten": 2094,
      "sing": 2095,
      "inte": 2096,
      "Dollar": 2097,
      "##tr": 2098,
      "##kun": 2099,
      "Gem": 2100,
      "darauf": 2101,
      "become": 2102,
      "No": 2103,
      "Wissenschaft": 2104,
      "##scheinlich": 2105,
      "nehmen": 2106,
      "process": 2107,
      "##urs": 2108,
      "Men": 2109,
      "##app": 2110,
      "##onder": 2111,
      "energ": 2112,
      "Mein": 2113,
      "compan": 2114,
      "Energ": 2115,
      "Str": 2116,
      "Eng": 2117,
      "ung": 2118,
      "left": 2119,
      "nam": 2120,
      "##gh": 2121,
      "teach": 2122,
      "half": 2123,
      "##laub": 2124,
      "moment": 2125,
      "These": 2126,
      "head": 2127,
      "##ald": 2128,
      "China": 2129,
      "Ende": 2130,
      "coll": 2131,
      "food": 2132,
      "Ber": 2133,
      "walk": 2134,
      "##äter": 2135,
      "##ouse": 2136,
      "##ird": 2137,
      "Dann": 2138,
      "cle": 2139,
      "##urz": 2140,
      "##ract": 2141,
      "fut": 2142,
      "enough": 2143,
      "schl": 2144,
      "Inter": 2145,
      "weniger": 2146,
      "making": 2147,
      "##imes": 2148,
      "##reiben": 2149,
      "quite": 2150,
      "##nov": 2151,
      "Bo": 2152,
      "Oh": 2153,
      "prof": 2154,
      "getting": 2155,
      "##gesch": 2156,
      "doch": 2157,
      "##icher": 2158,
      "kleinen": 2159,
      "interesting": 2160,
      "Technologie": 2161,
      "##ories": 2162,
      "\".": 2163,
      "cou": 2164,
      "hist": 2165,
      "comes": 2166,
      "Vers": 2167,
      "##annt": 2168,
      "Verb": 2169,
      "##ktur": 2170,
      "Wor": 2171,
      "sense": 2172,
      "##ax": 2173,
      "govern": 2174,
      "##ograph": 2175,
      "##ilen": 2176,
      "Famil": 2177,
      "social": 2178,
      "##sych": 2179,
      "York": 2180,
      "##vir": 2181,
      "stop": 2182,
      "typ": 2183,
      "Pol": 2184,
      "##kunft": 2185,
      "She": 2186,
      "##ets": 2187,
      "bedeutet": 2188,
      "contro": 2189,
      "spr": 2190,
      "##abor": 2191,
      "month": 2192,
      "energy": 2193,
      "##war": 2194,
      "probably": 2195,
      "Kre": 2196,
      "bre": 2197,
      "##iere": 2198,
      "future": 2199,
      "##aupt": 2200,
      "vier": 2201,
      "Denn": 2202,
      "sign": 2203,
      "happened": 2204,
      "##llt": 2205,
      "unseren": 2206,
      "##dr": 2207,
      "##pe": 2208,
      "times": 2209,
      "Sache": 2210,
      "##ließ": 2211,
      "Here": 2212,
      "Eur": 2213,
      "##orgen": 2214,
      "##zahl": 2215,
      "pop": 2216,
      "##ulation": 2217,
      "##ments": 2218,
      "grou": 2219,
      "##cer": 2220,
      "##ga": 2221,
      "##iet": 2222,
      "heiß": 2223,
      "Information": 2224,
      "planet": 2225,
      "Gro": 2226,
      "ret": 2227,
      "##äs": 2228,
      "ser": 2229,
      "bewe": 2230,
      "##cke": 2231,
      "far": 2232,
      "Ha": 2233,
      "talking": 2234,
      "##port": 2235,
      "building": 2236,
      "Warum": 2237,
      "dachte": 2238,
      "##nah": 2239,
      "body": 2240,
      "##usst": 2241,
      "room": 2242,
      "##hol": 2243,
      "Do": 2244,
      "##ican": 2245,
      "stuff": 2246,
      "##äft": 2247,
      "conne": 2248,
      "welche": 2249,
      "global": 2250,
      "Chr": 2251,
      "Sh": 2252,
      "##tty": 2253,
      "##line": 2254,
      "##cle": 2255,
      "##stand": 2256,
      "##ware": 2257,
      "##ustr": 2258,
      "Spiel": 2259,
      "Möglichkeit": 2260,
      "soz": 2261,
      "bringen": 2262,
      "dist": 2263,
      "18": 2264,
      "pos": 2265,
      "##llig": 2266,
      "ihm": 2267,
      "##ister": 2268,
      "Let": 2269,
      "brauchen": 2270,
      "möglich": 2271,
      "kleine": 2272,
      "##eder": 2273,
      "eigentlich": 2274,
      "##fort": 2275,
      "Seite": 2276,
      "##eten": 2277,
      "##ices": 2278,
      "##ime": 2279,
      "gesehen": 2280,
      "##duc": 2281,
      "12": 2282,
      "pie": 2283,
      "seit": 2284,
      "elect": 2285,
      "Energie": 2286,
      "OK": 2287,
      "ber": 2288,
      "cur": 2289,
      "side": 2290,
      "told": 2291,
      "without": 2292,
      "40": 2293,
      "Pat": 2294,
      "wa": 2295,
      "##ipp": 2296,
      "gest": 2297,
      "##ately": 2298,
      "Män": 2299,
      "seem": 2300,
      "pretty": 2301,
      "hund": 2302,
      "##ior": 2303,
      "##achsen": 2304,
      "##cture": 2305,
      "else": 2306,
      "dollars": 2307,
      "gar": 2308,
      "großen": 2309,
      "##viron": 2310,
      "El": 2311,
      "Ob": 2312,
      "##very": 2313,
      "hour": 2314,
      "beaut": 2315,
      "countries": 2316,
      "##halt": 2317,
      "Kar": 2318,
      "fol": 2319,
      "cho": 2320,
      "##ape": 2321,
      "lives": 2322,
      "coming": 2323,
      "business": 2324,
      "bad": 2325,
      "reason": 2326,
      "##ether": 2327,
      "##rad": 2328,
      "wenig": 2329,
      "voll": 2330,
      "keep": 2331,
      "##esent": 2332,
      "##iment": 2333,
      "##tem": 2334,
      "Stadt": 2335,
      "anything": 2336,
      "##ismus": 2337,
      "top": 2338,
      "ass": 2339,
      "job": 2340,
      "jeden": 2341,
      "Bü": 2342,
      "simple": 2343,
      "opp": 2344,
      "Weise": 2345,
      "Den": 2346,
      "##ash": 2347,
      "##ift": 2348,
      "Frau": 2349,
      "Go": 2350,
      "wonder": 2351,
      "##inen": 2352,
      "Ele": 2353,
      "Grupp": 2354,
      "##isk": 2355,
      "Gew": 2356,
      "##iges": 2357,
      "schle": 2358,
      "Licht": 2359,
      "Why": 2360,
      "##aden": 2361,
      "##chite": 2362,
      "allow": 2363,
      "##aps": 2364,
      "Ja": 2365,
      "##man": 2366,
      "##ret": 2367,
      "across": 2368,
      "Computer": 2369,
      "Ze": 2370,
      "environ": 2371,
      "##uring": 2372,
      "##itive": 2373,
      "ganzen": 2374,
      "sound": 2375,
      "\",": 2376,
      "men": 2377,
      "Ged": 2378,
      "##opf": 2379,
      "##dent": 2380,
      "Buch": 2381,
      "ey": 2382,
      "##ional": 2383,
      "##aun": 2384,
      "##sicht": 2385,
      "Africa": 2386,
      "On": 2387,
      "keinen": 2388,
      "Du": 2389,
      "ho": 2390,
      "week": 2391,
      "air": 2392,
      "##ertain": 2393,
      "hätte": 2394,
      "Woch": 2395,
      "hoch": 2396,
      "matter": 2397,
      "##ckt": 2398,
      "##ument": 2399,
      "außer": 2400,
      "prote": 2401,
      "Menge": 2402,
      "##ionen": 2403,
      "says": 2404,
      "##quen": 2405,
      "Zukunft": 2406,
      "makes": 2407,
      "hope": 2408,
      "##erne": 2409,
      "je": 2410,
      "living": 2411,
      "Entwick": 2412,
      "stru": 2413,
      "science": 2414,
      "absol": 2415,
      "educ": 2416,
      "##ince": 2417,
      "##asse": 2418,
      "gesagt": 2419,
      "Met": 2420,
      "Fall": 2421,
      "Lie": 2422,
      "versuchen": 2423,
      "##use": 2424,
      "seen": 2425,
      "##gal": 2426,
      "##irl": 2427,
      "val": 2428,
      "##ters": 2429,
      "später": 2430,
      "saw": 2431,
      "fün": 2432,
      "term": 2433,
      "##mun": 2434,
      "fig": 2435,
      "later": 2436,
      "##ying": 2437,
      "##NA": 2438,
      "col": 2439,
      "Körper": 2440,
      "##iving": 2441,
      "##emat": 2442,
      "soc": 2443,
      "glauben": 2444,
      "##ality": 2445,
      "Stra": 2446,
      "Ort": 2447,
      "Ko": 2448,
      "exist": 2449,
      "asked": 2450,
      "experience": 2451,
      "Danke": 2452,
      "goes": 2453,
      "level": 2454,
      "Moment": 2455,
      "cult": 2456,
      "##schaften": 2457,
      "Groß": 2458,
      "Ear": 2459,
      "##earch": 2460,
      "particular": 2461,
      "niem": 2462,
      "##ütz": 2463,
      "##utes": 2464,
      "##leben": 2465,
      "##erence": 2466,
      "##stellung": 2467,
      "##rieben": 2468,
      "##rem": 2469,
      "Vielen": 2470,
      "eas": 2471,
      "happens": 2472,
      "##where": 2473,
      "##vie": 2474,
      "##undheit": 2475,
      "young": 2476,
      "vielen": 2477,
      "Qu": 2478,
      "beim": 2479,
      "##ron": 2480,
      "##ament": 2481,
      "betr": 2482,
      "scient": 2483,
      "phot": 2484,
      "fest": 2485,
      "unglaub": 2486,
      "##ator": 2487,
      "offen": 2488,
      "having": 2489,
      "char": 2490,
      "che": 2491,
      "lea": 2492,
      "25": 2493,
      "##ily": 2494,
      "move": 2495,
      "Augen": 2496,
      "computer": 2497,
      "##ders": 2498,
      "effect": 2499,
      "picture": 2500,
      "six": 2501,
      "##kte": 2502,
      "##iety": 2503,
      "Natur": 2504,
      "oft": 2505,
      "##ausen": 2506,
      "stellen": 2507,
      "##ric": 2508,
      "##most": 2509,
      "##ker": 2510,
      "##ähigkeit": 2511,
      "test": 2512,
      "ways": 2513,
      "konnten": 2514,
      "fal": 2515,
      "##scheid": 2516,
      "thous": 2517,
      "##ization": 2518,
      "answer": 2519,
      "individ": 2520,
      "Dar": 2521,
      "##onnen": 2522,
      "family": 2523,
      "invest": 2524,
      "complete": 2525,
      "heißt": 2526,
      "lernen": 2527,
      "##ants": 2528,
      "eigenen": 2529,
      "##ene": 2530,
      "gehör": 2531,
      "##work": 2532,
      "##finden": 2533,
      "##athemat": 2534,
      "land": 2535,
      "##folg": 2536,
      "##rib": 2537,
      "##ume": 2538,
      "Jetzt": 2539,
      "öff": 2540,
      "##illiar": 2541,
      "##wie": 2542,
      "problems": 2543,
      "funktioniert": 2544,
      "vir": 2545,
      "Produ": 2546,
      "Planet": 2547,
      "Jo": 2548,
      "To": 2549,
      "##ife": 2550,
      "##üh": 2551,
      "##ches": 2552,
      "Zwe": 2553,
      "##äl": 2554,
      "##öl": 2555,
      "indem": 2556,
      "fünf": 2557,
      "Earth": 2558,
      "days": 2559,
      "mil": 2560,
      "ev": 2561,
      "stre": 2562,
      "bro": 2563,
      "city": 2564,
      "##uck": 2565,
      "##ammen": 2566,
      "jedes": 2567,
      "##reichen": 2568,
      "case": 2569,
      "##oman": 2570,
      "remember": 2571,
      "single": 2572,
      "environment": 2573,
      "##nung": 2574,
      "##hand": 2575,
      "schaffen": 2576,
      "##oot": 2577,
      "perfe": 2578,
      "rest": 2579,
      "unt": 2580,
      "##ams": 2581,
      "langu": 2582,
      "Haus": 2583,
      "##mp": 2584,
      "##unter": 2585,
      "loc": 2586,
      "Kont": 2587,
      "Mutter": 2588,
      "Milliar": 2589,
      "nä": 2590,
      "Sel": 2591,
      "Erde": 2592,
      "ble": 2593,
      "##zeich": 2594,
      "pers": 2595,
      "##orth": 2596,
      "began": 2597,
      "##hrer": 2598,
      "Organ": 2599,
      "Probleme": 2600,
      "gute": 2601,
      "normal": 2602,
      "##ellschaft": 2603,
      "##ho": 2604,
      "##erein": 2605,
      "basically": 2606,
      "nutzen": 2607,
      "##icult": 2608,
      "hear": 2609,
      "music": 2610,
      "komple": 2611,
      "public": 2612,
      "Not": 2613,
      "##outh": 2614,
      "##setzen": 2615,
      "##ided": 2616,
      "Schw": 2617,
      "inside": 2618,
      "##ision": 2619,
      "##ateg": 2620,
      "Dr": 2621,
      "##spr": 2622,
      "fund": 2623,
      "##ident": 2624,
      "Gesundheit": 2625,
      "Design": 2626,
      "##ready": 2627,
      "certain": 2628,
      "almost": 2629,
      "Par": 2630,
      "possible": 2631,
      "Wahr": 2632,
      "mar": 2633,
      "yet": 2634,
      "##ury": 2635,
      "besond": 2636,
      "Musik": 2637,
      "biolog": 2638,
      "sure": 2639,
      "saying": 2640,
      "Form": 2641,
      "aller": 2642,
      "Bil": 2643,
      "watch": 2644,
      "##inter": 2645,
      "##gefähr": 2646,
      "once": 2647,
      "amaz": 2648,
      "net": 2649,
      "##isches": 2650,
      "##ktiv": 2651,
      "guy": 2652,
      "##fahren": 2653,
      "Lu": 2654,
      "seiner": 2655,
      "USA": 2656,
      "line": 2657,
      "while": 2658,
      "##ption": 2659,
      "research": 2660,
      "##dition": 2661,
      "tot": 2662,
      "whether": 2663,
      "disco": 2664,
      "wahrscheinlich": 2665,
      "billion": 2666,
      "dig": 2667,
      "pain": 2668,
      "##wusst": 2669,
      "nothing": 2670,
      "cost": 2671,
      "bed": 2672,
      "sah": 2673,
      "both": 2674,
      "##gn": 2675,
      "##iti": 2676,
      "exc": 2677,
      "helfen": 2678,
      "##stoff": 2679,
      "verk": 2680,
      "DNA": 2681,
      "Uns": 2682,
      "suc": 2683,
      "##chs": 2684,
      "##ages": 2685,
      "allen": 2686,
      "contin": 2687,
      "##such": 2688,
      "already": 2689,
      "##ield": 2690,
      "##anc": 2691,
      "anders": 2692,
      "wrong": 2693,
      "verbr": 2694,
      "##iverse": 2695,
      "##dle": 2696,
      "incred": 2697,
      "60": 2698,
      "looked": 2699,
      "class": 2700,
      "ideas": 2701,
      "dise": 2702,
      "##uf": 2703,
      "##auer": 2704,
      "frag": 2705,
      "##ünst": 2706,
      "Projekt": 2707,
      "genug": 2708,
      "beste": 2709,
      "someone": 2710,
      "patient": 2711,
      "exact": 2712,
      "weg": 2713,
      "self": 2714,
      "schön": 2715,
      "within": 2716,
      "heart": 2717,
      "zeigt": 2718,
      "##ged": 2719,
      "##ielt": 2720,
      "Bed": 2721,
      "lange": 2722,
      "unserem": 2723,
      "treat": 2724,
      "##chmal": 2725,
      "herum": 2726,
      "neuen": 2727,
      "community": 2728,
      "control": 2729,
      "Patient": 2730,
      "speak": 2731,
      "##uz": 2732,
      "##öt": 2733,
      "##ases": 2734,
      "##ush": 2735,
      "erzählen": 2736,
      "Gemein": 2737,
      "##kr": 2738,
      "##lichkeit": 2739,
      "##denken": 2740,
      "product": 2741,
      "##inz": 2742,
      "Nicht": 2743,
      "looks": 2744,
      "##mittel": 2745,
      "CA": 2746,
      "##heiten": 2747,
      "nächsten": 2748,
      "history": 2749,
      "##unst": 2750,
      "ant": 2751,
      "##iful": 2752,
      "##ogn": 2753,
      "myself": 2754,
      "erken": 2755,
      "begann": 2756,
      "equ": 2757,
      "##est": 2758,
      "kennen": 2759,
      "true": 2760,
      "cells": 2761,
      "cond": 2762,
      "often": 2763,
      "Gegen": 2764,
      "iss": 2765,
      "recht": 2766,
      "##stead": 2767,
      "richtig": 2768,
      "##osed": 2769,
      "sit": 2770,
      "##welt": 2771,
      "amazing": 2772,
      "##icro": 2773,
      "Zahl": 2774,
      "kill": 2775,
      "##fä": 2776,
      "##ention": 2777,
      "##einander": 2778,
      "Bere": 2779,
      "kne": 2780,
      "##imate": 2781,
      "heard": 2782,
      "Ma": 2783,
      "##side": 2784,
      "order": 2785,
      "mass": 2786,
      "##aby": 2787,
      "dev": 2788,
      "Tod": 2789,
      "challen": 2790,
      "##wend": 2791,
      "figure": 2792,
      "##so": 2793,
      "built": 2794,
      "train": 2795,
      "##liches": 2796,
      "wus": 2797,
      "Sta": 2798,
      "girl": 2799,
      "erinn": 2800,
      "words": 2801,
      "ungefähr": 2802,
      "United": 2803,
      "##uß": 2804,
      "jede": 2805,
      "imagine": 2806,
      "ur": 2807,
      "universe": 2808,
      "##gangen": 2809,
      "alt": 2810,
      "bauen": 2811,
      "Selbst": 2812,
      "Kopf": 2813,
      "##ugen": 2814,
      "##richt": 2815,
      "couple": 2816,
      "Fot": 2817,
      "nah": 2818,
      "##ösen": 2819,
      "##alten": 2820,
      "Kunst": 2821,
      "Forsch": 2822,
      "##ollow": 2823,
      "psych": 2824,
      "##iol": 2825,
      "##vious": 2826,
      "##zieh": 2827,
      "mid": 2828,
      "night": 2829,
      "##oral": 2830,
      "##ivity": 2831,
      "aff": 2832,
      "##ling": 2833,
      "##ums": 2834,
      "works": 2835,
      "##ton": 2836,
      "##chan": 2837,
      "gemein": 2838,
      "age": 2839,
      "insp": 2840,
      "##thers": 2841,
      "hundred": 2842,
      "80": 2843,
      "sw": 2844,
      "bevor": 2845,
      "##less": 2846,
      "Schule": 2847,
      "face": 2848,
      "##eah": 2849,
      "##ians": 2850,
      "##zess": 2851,
      "cancer": 2852,
      "months": 2853,
      "robot": 2854,
      "##fle": 2855,
      "result": 2856,
      "liegt": 2857,
      "Unternehmen": 2858,
      "government": 2859,
      "Für": 2860,
      "sex": 2861,
      "##undert": 2862,
      "Schul": 2863,
      "Ideen": 2864,
      "##ituation": 2865,
      "Zus": 2866,
      "bisschen": 2867,
      "##iker": 2868,
      "##forder": 2869,
      "Planeten": 2870,
      "Leuten": 2871,
      "beautiful": 2872,
      "##ination": 2873,
      "entire": 2874,
      "Exper": 2875,
      "##glichen": 2876,
      "friends": 2877,
      "hö": 2878,
      "##ücken": 2879,
      "klar": 2880,
      "Fähigkeit": 2881,
      "Krie": 2882,
      "must": 2883,
      "rad": 2884,
      "##ritt": 2885,
      "##ones": 2886,
      "link": 2887,
      "pay": 2888,
      "##hin": 2889,
      "defin": 2890,
      "seinen": 2891,
      "Pe": 2892,
      "##innen": 2893,
      "mot": 2894,
      "##iting": 2895,
      "front": 2896,
      "##äche": 2897,
      "full": 2898,
      "##satz": 2899,
      "group": 2900,
      "kurz": 2901,
      "sei": 2902,
      "verd": 2903,
      "Erfahr": 2904,
      "wicht": 2905,
      "##aper": 2906,
      "Informationen": 2907,
      "Bet": 2908,
      "##zust": 2909,
      "language": 2910,
      "##zt": 2911,
      "verändern": 2912,
      "schwer": 2913,
      "Can": 2914,
      "##gem": 2915,
      "incre": 2916,
      "Punkt": 2917,
      "material": 2918,
      "überall": 2919,
      "##ße": 2920,
      "Wirtschaft": 2921,
      "close": 2922,
      "Meine": 2923,
      "##nitt": 2924,
      "##ultur": 2925,
      "piece": 2926,
      "Dem": 2927,
      "ident": 2928,
      "##icken": 2929,
      "##utzt": 2930,
      "##ädchen": 2931,
      "##üt": 2932,
      "stehen": 2933,
      "Mode": 2934,
      "sagten": 2935,
      "species": 2936,
      "##cc": 2937,
      "Vie": 2938,
      "follow": 2939,
      "##mö": 2940,
      "##ieht": 2941,
      "##asst": 2942,
      "inner": 2943,
      "market": 2944,
      "##up": 2945,
      "##ired": 2946,
      "Robot": 2947,
      "Krank": 2948,
      "##aur": 2949,
      "Arten": 2950,
      "intern": 2951,
      "places": 2952,
      "los": 2953,
      "isn": 2954,
      "model": 2955,
      "##ivil": 2956,
      "##mut": 2957,
      "##fall": 2958,
      "##imens": 2959,
      "appro": 2960,
      "gehört": 2961,
      "until": 2962,
      "Fragen": 2963,
      "everybody": 2964,
      "Milliarden": 2965,
      "##tt": 2966,
      "##ence": 2967,
      "##une": 2968,
      "neur": 2969,
      "video": 2970,
      "wasn": 2971,
      "behav": 2972,
      "Antwort": 2973,
      "##nisse": 2974,
      "##häng": 2975,
      "erkl": 2976,
      "Männer": 2977,
      "##ike": 2978,
      "##omet": 2979,
      "##umen": 2980,
      "darum": 2981,
      "##setz": 2982,
      "nennen": 2983,
      "education": 2984,
      "##af": 2985,
      "199": 2986,
      "decided": 2987,
      "schwier": 2988,
      "11": 2989,
      "innov": 2990,
      "Every": 2991,
      "##ingt": 2992,
      "##ändert": 2993,
      "Gott": 2994,
      "dru": 2995,
      "completely": 2996,
      "eben": 2997,
      "##por": 2998,
      "##anzen": 2999,
      "##immen": 3000,
      "engine": 3001,
      "writ": 3002,
      "musste": 3003,
      "Mädchen": 3004,
      "free": 3005,
      "law": 3006,
      "##hle": 3007,
      "word": 3008,
      "chem": 3009,
      "conc": 3010,
      "Dieses": 3011,
      "large": 3012,
      "ihrem": 3013,
      "ta": 3014,
      "##omes": 3015,
      "Glück": 3016,
      "Sc": 3017,
      "Afrika": 3018,
      "##voll": 3019,
      "Geschichten": 3020,
      "Di": 3021,
      "Netz": 3022,
      "terr": 3023,
      "anf": 3024,
      "spend": 3025,
      "reden": 3026,
      "##ential": 3027,
      "##ctor": 3028,
      "dich": 3029,
      "##werk": 3030,
      "Kön": 3031,
      "mess": 3032,
      "quick": 3033,
      "emot": 3034,
      "Richt": 3035,
      "##öff": 3036,
      "anderes": 3037,
      "nature": 3038,
      "hinter": 3039,
      "study": 3040,
      "Film": 3041,
      "States": 3042,
      "sens": 3043,
      "##inner": 3044,
      "##izin": 3045,
      "bereits": 3046,
      "miss": 3047,
      "stories": 3048,
      "Engl": 3049,
      "exactly": 3050,
      "God": 3051,
      "##ump": 3052,
      "Jahrh": 3053,
      "taking": 3054,
      "##lo": 3055,
      "##ortun": 3056,
      "became": 3057,
      "object": 3058,
      "##met": 3059,
      "though": 3060,
      "##heim": 3061,
      "##ibly": 3062,
      "großart": 3063,
      "Ur": 3064,
      "euch": 3065,
      "##kten": 3066,
      "view": 3067,
      "extra": 3068,
      "erh": 3069,
      "Gener": 3070,
      "##osph": 3071,
      "##ienen": 3072,
      "##plic": 3073,
      "past": 3074,
      "##wohl": 3075,
      "oce": 3076,
      "##stit": 3077,
      "happening": 3078,
      "Lös": 3079,
      "einge": 3080,
      "##wor": 3081,
      "priv": 3082,
      "students": 3083,
      "animals": 3084,
      "Goog": 3085,
      "American": 3086,
      "son": 3087,
      "tool": 3088,
      "##acter": 3089,
      "India": 3090,
      "entwickelt": 3091,
      "Minuten": 3092,
      "Nein": 3093,
      "##ilfe": 3094,
      "schein": 3095,
      "prov": 3096,
      "Spe": 3097,
      "##rag": 3098,
      "discover": 3099,
      "kinds": 3100,
      "knew": 3101,
      "itself": 3102,
      "##rieb": 3103,
      "fragen": 3104,
      "share": 3105,
      "conf": 3106,
      "Zusammen": 3107,
      "##licht": 3108,
      "America": 3109,
      "Gesellschaft": 3110,
      "erkennen": 3111,
      "##gleich": 3112,
      "##inger": 3113,
      "ange": 3114,
      "##zept": 3115,
      "woman": 3116,
      "##igten": 3117,
      "erreichen": 3118,
      "West": 3119,
      "somebody": 3120,
      "det": 3121,
      "house": 3122,
      "##ides": 3123,
      "##ftware": 3124,
      "Verhalten": 3125,
      "##liegen": 3126,
      "Familie": 3127,
      "##inal": 3128,
      "##ots": 3129,
      "learned": 3130,
      "##sein": 3131,
      "ourselves": 3132,
      "steht": 3133,
      "adv": 3134,
      "besonders": 3135,
      "##bed": 3136,
      "##istan": 3137,
      "success": 3138,
      "mem": 3139,
      "since": 3140,
      "wunder": 3141,
      "repr": 3142,
      "##uster": 3143,
      "Gefühl": 3144,
      "oben": 3145,
      "ähn": 3146,
      "##ames": 3147,
      "##ability": 3148,
      "deal": 3149,
      "halten": 3150,
      "tro": 3151,
      "##ging": 3152,
      "##face": 3153,
      "spielen": 3154,
      "namens": 3155,
      "society": 3156,
      "dep": 3157,
      "Beweg": 3158,
      "Entscheid": 3159,
      "won": 3160,
      "entde": 3161,
      "##ively": 3162,
      "cool": 3163,
      "benutzen": 3164,
      "dra": 3165,
      "techn": 3166,
      "minutes": 3167,
      "verschiedene": 3168,
      "Gruppe": 3169,
      "##inning": 3170,
      "hätten": 3171,
      "sow": 3172,
      "gets": 3173,
      "Flug": 3174,
      "complex": 3175,
      "clear": 3176,
      "dir": 3177,
      "gerne": 3178,
      "##igung": 3179,
      "seinem": 3180,
      "av": 3181,
      "##haps": 3182,
      "questions": 3183,
      "company": 3184,
      "hours": 3185,
      "stat": 3186,
      "cir": 3187,
      "sym": 3188,
      "themselves": 3189,
      "Indien": 3190,
      "Fol": 3191,
      "##ichen": 3192,
      "##reit": 3193,
      "##osp": 3194,
      "Macht": 3195,
      "foc": 3196,
      "Em": 3197,
      "Oder": 3198,
      "var": 3199,
      "##fang": 3200,
      "along": 3201,
      "against": 3202,
      "wind": 3203,
      "##ature": 3204,
      "##ucht": 3205,
      "turns": 3206,
      "huge": 3207,
      "name": 3208,
      "##bere": 3209,
      "machte": 3210,
      "##ommt": 3211,
      "hören": 3212,
      "game": 3213,
      "meet": 3214,
      "state": 3215,
      "arm": 3216,
      "relations": 3217,
      "lau": 3218,
      "##unge": 3219,
      "darin": 3220,
      "rather": 3221,
      "##ering": 3222,
      "Them": 3223,
      "##annte": 3224,
      "##grund": 3225,
      "Herz": 3226,
      "created": 3227,
      "Bau": 3228,
      "opportun": 3229,
      "Vielleicht": 3230,
      "Google": 3231,
      "colle": 3232,
      "##ager": 3233,
      "##indung": 3234,
      "##immer": 3235,
      "##ource": 3236,
      "wohl": 3237,
      "fly": 3238,
      "Gebäu": 3239,
      "bott": 3240,
      "oper": 3241,
      "ones": 3242,
      "##fra": 3243,
      "Then": 3244,
      "##itting": 3245,
      "opt": 3246,
      "risk": 3247,
      "##bild": 3248,
      "Wort": 3249,
      "Weil": 3250,
      "##onne": 3251,
      "anzu": 3252,
      "erf": 3253,
      "##wards": 3254,
      "focus": 3255,
      "add": 3256,
      "extrem": 3257,
      "Bilder": 3258,
      "Far": 3259,
      "Ir": 3260,
      "cra": 3261,
      "##ral": 3262,
      "##brau": 3263,
      "century": 3264,
      "pot": 3265,
      "Doch": 3266,
      "na": 3267,
      "##ahn": 3268,
      "##ished": 3269,
      "##haupt": 3270,
      "##ante": 3271,
      "statt": 3272,
      "least": 3273,
      "Sü": 3274,
      "liter": 3275,
      "##bare": 3276,
      "Ergeb": 3277,
      "Bei": 3278,
      "mov": 3279,
      "Angst": 3280,
      "Patienten": 3281,
      "Some": 3282,
      "##anten": 3283,
      "couldn": 3284,
      "Auto": 3285,
      "del": 3286,
      "pred": 3287,
      "meas": 3288,
      "tradition": 3289,
      "Fir": 3290,
      "third": 3291,
      "##ologie": 3292,
      "guys": 3293,
      "Kn": 3294,
      "Kor": 3295,
      "##ither": 3296,
      "worked": 3297,
      "Fü": 3298,
      "dah": 3299,
      "inv": 3300,
      "##gramm": 3301,
      "jedem": 3302,
      "eing": 3303,
      "sechs": 3304,
      "##ächt": 3305,
      "braucht": 3306,
      "500": 3307,
      "##iste": 3308,
      "##richten": 3309,
      "##neh": 3310,
      "sometimes": 3311,
      "Eltern": 3312,
      "Durch": 3313,
      "mother": 3314,
      "difficult": 3315,
      "Kultur": 3316,
      "Masch": 3317,
      "Res": 3318,
      "##system": 3319,
      "Stunden": 3320,
      "lead": 3321,
      "##esse": 3322,
      "##reis": 3323,
      "##ließlich": 3324,
      "90": 3325,
      "##endet": 3326,
      "##ples": 3327,
      "Ro": 3328,
      "Lin": 3329,
      "Bi": 3330,
      "others": 3331,
      "##ützen": 3332,
      "Sprache": 3333,
      "happy": 3334,
      "glück": 3335,
      "thousands": 3336,
      "Ke": 3337,
      "zer": 3338,
      "ries": 3339,
      "##punkt": 3340,
      "##bracht": 3341,
      "gesam": 3342,
      "news": 3343,
      "Luft": 3344,
      "disease": 3345,
      "Jahrhundert": 3346,
      "invol": 3347,
      "vorstellen": 3348,
      "##uld": 3349,
      "##weit": 3350,
      "based": 3351,
      "Freund": 3352,
      "gave": 3353,
      "##orden": 3354,
      "early": 3355,
      "anal": 3356,
      "Cl": 3357,
      "aud": 3358,
      "##gende": 3359,
      "##ennt": 3360,
      "deep": 3361,
      "hoff": 3362,
      "non": 3363,
      "##istic": 3364,
      "scale": 3365,
      "systems": 3366,
      "Regierung": 3367,
      "##tend": 3368,
      "lik": 3369,
      "Char": 3370,
      "16": 3371,
      "##tel": 3372,
      "lots": 3373,
      "Vater": 3374,
      "##ätz": 3375,
      "amount": 3376,
      "##führt": 3377,
      "##illions": 3378,
      "field": 3379,
      "micro": 3380,
      "instead": 3381,
      "##gestellt": 3382,
      "listen": 3383,
      "everyone": 3384,
      "richt": 3385,
      "##schnitt": 3386,
      "##cul": 3387,
      "einigen": 3388,
      "erhalten": 3389,
      "frü": 3390,
      "irgendwie": 3391,
      "fas": 3392,
      "##andel": 3393,
      "##iken": 3394,
      "##apt": 3395,
      "natural": 3396,
      "entwickeln": 3397,
      "network": 3398,
      "##ekte": 3399,
      "welt": 3400,
      "##bes": 3401,
      "##ared": 3402,
      "##dest": 3403,
      "relig": 3404,
      "behavior": 3405,
      "Bro": 3406,
      "##indet": 3407,
      "leg": 3408,
      "##zentr": 3409,
      "!\"": 3410,
      "##ask": 3411,
      "Sicher": 3412,
      "##ef": 3413,
      "##bringen": 3414,
      "verschiedenen": 3415,
      "Ad": 3416,
      "##öhn": 3417,
      "##igte": 3418,
      "manchmal": 3419,
      "##ässt": 3420,
      "bewegen": 3421,
      "beiden": 3422,
      "##utions": 3423,
      "Veränder": 3424,
      "Video": 3425,
      "fant": 3426,
      "seven": 3427,
      "arg": 3428,
      "Städ": 3429,
      "##que": 3430,
      "##zeugen": 3431,
      "Techn": 3432,
      "##akter": 3433,
      "taken": 3434,
      "Fahr": 3435,
      "film": 3436,
      "outside": 3437,
      "black": 3438,
      "disc": 3439,
      "behind": 3440,
      "pick": 3441,
      "machine": 3442,
      "##amera": 3443,
      "relationship": 3444,
      "##iben": 3445,
      "##apan": 3446,
      "wollten": 3447,
      "death": 3448,
      "difference": 3449,
      "führen": 3450,
      "bestimm": 3451,
      "##änger": 3452,
      "collect": 3453,
      "14": 3454,
      "##äten": 3455,
      "##itions": 3456,
      "##ison": 3457,
      "##anger": 3458,
      "stell": 3459,
      "##view": 3460,
      "cut": 3461,
      "ändern": 3462,
      "learning": 3463,
      "John": 3464,
      "fort": 3465,
      "Schwe": 3466,
      "impro": 3467,
      "Europe": 3468,
      "Bezieh": 3469,
      "vo": 3470,
      "##roll": 3471,
      "genet": 3472,
      "recent": 3473,
      "##umm": 3474,
      "##rab": 3475,
      "##gung": 3476,
      "besten": 3477,
      "erw": 3478,
      "interact": 3479,
      "##ölker": 3480,
      "mult": 3481,
      "changed": 3482,
      "Krebs": 3483,
      "HI": 3484,
      "##to": 3485,
      "##ising": 3486,
      "nämlich": 3487,
      "einzige": 3488,
      "green": 3489,
      "##alität": 3490,
      "##ctions": 3491,
      "area": 3492,
      "pattern": 3493,
      "##hnt": 3494,
      "Roboter": 3495,
      "Hause": 3496,
      "##ning": 3497,
      "##ernt": 3498,
      "##arch": 3499,
      "einzel": 3500,
      "Organis": 3501,
      "oil": 3502,
      "bemer": 3503,
      "Gesicht": 3504,
      "Publ": 3505,
      "Sinn": 3506,
      "Sachen": 3507,
      "##tens": 3508,
      "##ama": 3509,
      "dest": 3510,
      "middle": 3511,
      "Je": 3512,
      "Material": 3513,
      "##ony": 3514,
      "record": 3515,
      "ra": 3516,
      "##alax": 3517,
      "##ney": 3518,
      "online": 3519,
      "yourself": 3520,
      "unterschied": 3521,
      "super": 3522,
      "##ully": 3523,
      "cann": 3524,
      "Part": 3525,
      "##zug": 3526,
      "201": 3527,
      "verr": 3528,
      "verändert": 3529,
      "eight": 3530,
      "##yr": 3531,
      "##aktion": 3532,
      "verwenden": 3533,
      "Hö": 3534,
      "sage": 3535,
      "##oms": 3536,
      "##uren": 3537,
      "##oph": 3538,
      "##ards": 3539,
      "70": 3540,
      "##uh": 3541,
      "Gebäude": 3542,
      "eher": 3543,
      "##ummer": 3544,
      "moving": 3545,
      "Kle": 3546,
      "common": 3547,
      "unglaublich": 3548,
      "HIV": 3549,
      "hol": 3550,
      "##bte": 3551,
      "##pect": 3552,
      "har": 3553,
      "##ikro": 3554,
      "##stens": 3555,
      "eyes": 3556,
      "Gleich": 3557,
      "given": 3558,
      "##erweise": 3559,
      "##stra": 3560,
      "##ains": 3561,
      "Heraus": 3562,
      "Su": 3563,
      "perhaps": 3564,
      "indust": 3565,
      "menschlichen": 3566,
      "##lligen": 3567,
      "##beite": 3568,
      "Werk": 3569,
      "easy": 3570,
      "innerhalb": 3571,
      "Just": 3572,
      "Lo": 3573,
      "tem": 3574,
      "##okrat": 3575,
      "Dieser": 3576,
      "Sk": 3577,
      "Ziel": 3578,
      "event": 3579,
      "fand": 3580,
      "sug": 3581,
      "##reen": 3582,
      "Meer": 3583,
      "hands": 3584,
      "experiment": 3585,
      "beginnen": 3586,
      "friend": 3587,
      "##imp": 3588,
      "##opp": 3589,
      "Kindern": 3590,
      "leave": 3591,
      "comput": 3592,
      "Aufga": 3593,
      "##gang": 3594,
      "##unch": 3595,
      "Länder": 3596,
      "turned": 3597,
      "Har": 3598,
      "serv": 3599,
      "##verage": 3600,
      "##med": 3601,
      "##wand": 3602,
      "##riff": 3603,
      "wegen": 3604,
      "break": 3605,
      "Car": 3606,
      "occ": 3607,
      "überhaupt": 3608,
      "##scheiden": 3609,
      "terms": 3610,
      "17": 3611,
      "hold": 3612,
      "##genommen": 3613,
      "perform": 3614,
      "population": 3615,
      "absolute": 3616,
      "Mil": 3617,
      "Stück": 3618,
      "incl": 3619,
      "cities": 3620,
      "jour": 3621,
      "low": 3622,
      "##ply": 3623,
      "takes": 3624,
      "Chris": 3625,
      "getan": 3626,
      "obvious": 3627,
      "needs": 3628,
      "culture": 3629,
      "##zustellen": 3630,
      "##ließen": 3631,
      "Ober": 3632,
      "##jor": 3633,
      "##oun": 3634,
      "ern": 3635,
      "Rest": 3636,
      "beginning": 3637,
      "tut": 3638,
      "##tete": 3639,
      "seeing": 3640,
      "##avor": 3641,
      "World": 3642,
      "fish": 3643,
      "##isieren": 3644,
      "lim": 3645,
      "finally": 3646,
      "wonderful": 3647,
      "Bes": 3648,
      "size": 3649,
      "grand": 3650,
      "gleichen": 3651,
      "paper": 3652,
      "##sw": 3653,
      "##mm": 3654,
      "##ana": 3655,
      "archite": 3656,
      "Chin": 3657,
      "Umwelt": 3658,
      "profess": 3659,
      "ocean": 3660,
      "beob": 3661,
      "##ined": 3662,
      "sozial": 3663,
      "##text": 3664,
      "personal": 3665,
      "communic": 3666,
      "##zy": 3667,
      "parts": 3668,
      "zwar": 3669,
      "versucht": 3670,
      "reach": 3671,
      "schauen": 3672,
      "pract": 3673,
      "##ially": 3674,
      "##50": 3675,
      "##ikum": 3676,
      "desc": 3677,
      "##idence": 3678,
      "local": 3679,
      "fantast": 3680,
      "Lage": 3681,
      "Typ": 3682,
      "##völker": 3683,
      "Stellen": 3684,
      "cannot": 3685,
      "Herausforder": 3686,
      "evolution": 3687,
      "ill": 3688,
      "##isse": 3689,
      "Prozess": 3690,
      "Anfang": 3691,
      "Universum": 3692,
      "Fort": 3693,
      "May": 3694,
      "##lev": 3695,
      "short": 3696,
      "##ände": 3697,
      "fühl": 3698,
      "fundament": 3699,
      "Kap": 3700,
      "##aged": 3701,
      "allem": 3702,
      "digital": 3703,
      "tau": 3704,
      "##oud": 3705,
      "image": 3706,
      "during": 3707,
      "##itter": 3708,
      "##orie": 3709,
      "mole": 3710,
      "##ails": 3711,
      "Zum": 3712,
      "blue": 3713,
      "Wochen": 3714,
      "bar": 3715,
      "ster": 3716,
      "##onen": 3717,
      "##urt": 3718,
      "poor": 3719,
      "##hor": 3720,
      "powerful": 3721,
      "major": 3722,
      "Nat": 3723,
      "foot": 3724,
      "mathemat": 3725,
      "##haus": 3726,
      "##alif": 3727,
      "Rei": 3728,
      "##ology": 3729,
      "longer": 3730,
      "##haft": 3731,
      "cal": 3732,
      "simply": 3733,
      "People": 3734,
      "ko": 3735,
      "thank": 3736,
      "Lehrer": 3737,
      "companies": 3738,
      "sat": 3739,
      "arbeite": 3740,
      "Tier": 3741,
      "Wahl": 3742,
      "hig": 3743,
      "##ently": 3744,
      "##enne": 3745,
      "Stru": 3746,
      "Essen": 3747,
      "realized": 3748,
      "expect": 3749,
      "##nahme": 3750,
      "##wär": 3751,
      "needed": 3752,
      "access": 3753,
      "Co": 3754,
      "Pap": 3755,
      "mer": 3756,
      "moral": 3757,
      "##omat": 3758,
      "treffen": 3759,
      "Entwicklung": 3760,
      "niemand": 3761,
      "Erfahrung": 3762,
      "stay": 3763,
      "Japan": 3764,
      "Trans": 3765,
      "economic": 3766,
      "Tiere": 3767,
      "Vir": 3768,
      "Yeah": 3769,
      "##sk": 3770,
      "##kü": 3771,
      "whatever": 3772,
      "team": 3773,
      "198": 3774,
      "##achst": 3775,
      "meines": 3776,
      "mussten": 3777,
      "##ziehen": 3778,
      "interessant": 3779,
      "known": 3780,
      "viol": 3781,
      "##fläche": 3782,
      "Geschäft": 3783,
      "##baren": 3784,
      "weitere": 3785,
      "Zug": 3786,
      "bir": 3787,
      "sun": 3788,
      "##fully": 3789,
      "##agn": 3790,
      "verste": 3791,
      "auss": 3792,
      "bereit": 3793,
      "wusste": 3794,
      "En": 3795,
      "Mittel": 3796,
      "##iale": 3797,
      "special": 3798,
      "##book": 3799,
      "Sicherheit": 3800,
      "Dingen": 3801,
      "Prä": 3802,
      "leicht": 3803,
      "##führen": 3804,
      "ple": 3805,
      "Freunde": 3806,
      "13": 3807,
      "Ist": 3808,
      "kamen": 3809,
      "##auso": 3810,
      "##elten": 3811,
      "neg": 3812,
      "tried": 3813,
      "##ources": 3814,
      "Tages": 3815,
      "parents": 3816,
      "Vort": 3817,
      "fu": 3818,
      "verst": 3819,
      "Seit": 3820,
      "fac": 3821,
      "##lungs": 3822,
      "press": 3823,
      "interested": 3824,
      "Versuch": 3825,
      "##cing": 3826,
      "##ücke": 3827,
      "present": 3828,
      "nächste": 3829,
      "##ledge": 3830,
      "Struktur": 3831,
      "ang": 3832,
      "##ills": 3833,
      "feed": 3834,
      "surv": 3835,
      "App": 3836,
      "##falls": 3837,
      "ground": 3838,
      "surpr": 3839,
      "reality": 3840,
      "produz": 3841,
      "explain": 3842,
      "Denken": 3843,
      "Job": 3844,
      "##hood": 3845,
      "##inder": 3846,
      "Web": 3847,
      "Instit": 3848,
      "media": 3849,
      "vö": 3850,
      "Klim": 3851,
      "Polit": 3852,
      "felt": 3853,
      "okay": 3854,
      "##min": 3855,
      "##fore": 3856,
      "##schaffen": 3857,
      "Verein": 3858,
      "##ötz": 3859,
      "##inary": 3860,
      "##ächst": 3861,
      "enorm": 3862,
      "growth": 3863,
      "Markt": 3864,
      "##fgh": 3865,
      "##ämp": 3866,
      "##iziert": 3867,
      "buy": 3868,
      "Grunde": 3869,
      "jo": 3870,
      "##yl": 3871,
      "erre": 3872,
      "##cially": 3873,
      "perfect": 3874,
      "Per": 3875,
      "##elte": 3876,
      "21": 3877,
      "orig": 3878,
      "##acy": 3879,
      "unten": 3880,
      "fühlen": 3881,
      "solche": 3882,
      "recogn": 3883,
      "quickly": 3884,
      "circ": 3885,
      "##ised": 3886,
      "##annten": 3887,
      "gone": 3888,
      "##anach": 3889,
      "##ibility": 3890,
      "##icks": 3891,
      "enc": 3892,
      "##reifen": 3893,
      "value": 3894,
      "fear": 3895,
      "##ilar": 3896,
      "##antwort": 3897,
      "Sek": 3898,
      "support": 3899,
      "300": 3900,
      "ess": 3901,
      "send": 3902,
      "##üng": 3903,
      "menschliche": 3904,
      "inspir": 3905,
      "Publikum": 3906,
      "Gra": 3907,
      "father": 3908,
      "##bor": 3909,
      "vorher": 3910,
      "South": 3911,
      "##iot": 3912,
      "##udden": 3913,
      "eigene": 3914,
      "falsch": 3915,
      "Haupt": 3916,
      "Tage": 3917,
      "Hilfe": 3918,
      "##let": 3919,
      "See": 3920,
      "##oten": 3921,
      "##raum": 3922,
      "##lam": 3923,
      "worden": 3924,
      "Neur": 3925,
      "kont": 3926,
      "Lassen": 3927,
      "spent": 3928,
      "humans": 3929,
      "erstaun": 3930,
      "##fghan": 3931,
      "ability": 3932,
      "feet": 3933,
      "amer": 3934,
      "##omin": 3935,
      "hab": 3936,
      "democ": 3937,
      "Unterschied": 3938,
      "Boden": 3939,
      "Möglichkeiten": 3940,
      "National": 3941,
      "lässt": 3942,
      "##cious": 3943,
      "deren": 3944,
      "letzte": 3945,
      "approach": 3946,
      "##hnen": 3947,
      "##zial": 3948,
      "erwar": 3949,
      "entfer": 3950,
      "dark": 3951,
      "obs": 3952,
      "Bür": 3953,
      "ed": 3954,
      "##ox": 3955,
      "##ban": 3956,
      "##mit": 3957,
      "##äss": 3958,
      "shows": 3959,
      "dau": 3960,
      "wären": 3961,
      "##izieren": 3962,
      "jedoch": 3963,
      "damals": 3964,
      "bringt": 3965,
      "weeks": 3966,
      "Modell": 3967,
      "##ahren": 3968,
      "untersuch": 3969,
      "##pression": 3970,
      "Gedanken": 3971,
      "Nacht": 3972,
      "##imme": 3973,
      "essen": 3974,
      "near": 3975,
      "obwohl": 3976,
      "opportunity": 3977,
      "sitting": 3978,
      "##cts": 3979,
      "key": 3980,
      "animal": 3981,
      "program": 3982,
      "völlig": 3983,
      "Öl": 3984,
      "##arten": 3985,
      "##isiert": 3986,
      "erlau": 3987,
      "hy": 3988,
      "##lin": 3989,
      "surface": 3990,
      "Bereich": 3991,
      "amerikan": 3992,
      "##eles": 3993,
      "schreiben": 3994,
      "lost": 3995,
      "grund": 3996,
      "##orning": 3997,
      "political": 3998,
      "##lossen": 3999,
      "Ben": 4000,
      "Right": 4001,
      "##ai": 4002,
      "##achtet": 4003,
      "Stand": 4004,
      "Gren": 4005,
      "strong": 4006,
      "direkt": 4007,
      "##reten": 4008,
      "bel": 4009,
      "##rogen": 4010,
      "##ows": 4011,
      "Elekt": 4012,
      "Thema": 4013,
      "ged": 4014,
      "Kü": 4015,
      "Park": 4016,
      "either": 4017,
      "##ude": 4018,
      "##chsel": 4019,
      "##statt": 4020,
      "stark": 4021,
      "##stein": 4022,
      "gleiche": 4023,
      "Staaten": 4024,
      "##bel": 4025,
      "##chter": 4026,
      "##ouch": 4027,
      "economy": 4028,
      "##itzen": 4029,
      "##lef": 4030,
      "Woche": 4031,
      "##reg": 4032,
      "##abil": 4033,
      "##itze": 4034,
      "##aring": 4035,
      "##izing": 4036,
      "pres": 4037,
      "write": 4038,
      "instit": 4039,
      "fragte": 4040,
      "##ötzlich": 4041,
      "##fern": 4042,
      "phone": 4043,
      "anderer": 4044,
      "##hrte": 4045,
      "##schauen": 4046,
      "mechan": 4047,
      "hervor": 4048,
      "bleiben": 4049,
      "Sym": 4050,
      "nu": 4051,
      "##ball": 4052,
      "##irm": 4053,
      "##ales": 4054,
      "##ived": 4055,
      "Archite": 4056,
      "##fluss": 4057,
      "respons": 4058,
      "color": 4059,
      "measure": 4060,
      "lab": 4061,
      "##bauen": 4062,
      "##samkeit": 4063,
      "##ikaner": 4064,
      "structure": 4065,
      "squ": 4066,
      "##ght": 4067,
      "##bon": 4068,
      "beein": 4069,
      "##ilos": 4070,
      "##ops": 4071,
      "auszu": 4072,
      "Mars": 4073,
      "lösen": 4074,
      "##rum": 4075,
      "##zellen": 4076,
      "##part": 4077,
      "##ites": 4078,
      "##usion": 4079,
      "areas": 4080,
      "dessen": 4081,
      "##iction": 4082,
      "##zin": 4083,
      "##lang": 4084,
      "##lex": 4085,
      "bottom": 4086,
      "hor": 4087,
      "##alle": 4088,
      "##ollen": 4089,
      "Monate": 4090,
      "Viele": 4091,
      "##uen": 4092,
      "plan": 4093,
      "step": 4094,
      "box": 4095,
      "virt": 4096,
      "incredible": 4097,
      "besteht": 4098,
      "Dav": 4099,
      "##uth": 4100,
      "sollen": 4101,
      "##edeut": 4102,
      "leaders": 4103,
      "Com": 4104,
      "Mag": 4105,
      "funktionieren": 4106,
      "Afghan": 4107,
      "Namen": 4108,
      "Oze": 4109,
      "caus": 4110,
      "ment": 4111,
      "##ole": 4112,
      "Innov": 4113,
      "##öße": 4114,
      "consum": 4115,
      "draw": 4116,
      "Ster": 4117,
      "Tre": 4118,
      "##bol": 4119,
      "##zogen": 4120,
      "##pid": 4121,
      "Test": 4122,
      "verbess": 4123,
      "consider": 4124,
      "individu": 4125,
      "Na": 4126,
      "eat": 4127,
      "##kungen": 4128,
      "prim": 4129,
      "##hören": 4130,
      "suchen": 4131,
      "##nahmen": 4132,
      "betrachten": 4133,
      "photograph": 4134,
      "patients": 4135,
      "##scht": 4136,
      "main": 4137,
      "##flanzen": 4138,
      "##ograf": 4139,
      "Red": 4140,
      "dad": 4141,
      "##ators": 4142,
      "schlecht": 4143,
      "Liebe": 4144,
      "schwierig": 4145,
      "Bar": 4146,
      "bitte": 4147,
      "morning": 4148,
      "##iny": 4149,
      "##ades": 4150,
      "##hler": 4151,
      "wouldn": 4152,
      "attention": 4153,
      "gemeinsam": 4154,
      "Fern": 4155,
      "Mikro": 4156,
      "average": 4157,
      "deg": 4158,
      "##ips": 4159,
      "Lösung": 4160,
      "Bewegung": 4161,
      "Lond": 4162,
      "Nahr": 4163,
      "Yes": 4164,
      "##ks": 4165,
      "changes": 4166,
      "individual": 4167,
      "Dam": 4168,
      "pull": 4169,
      "univers": 4170,
      "teilen": 4171,
      "##ausende": 4172,
      "Cent": 4173,
      "Zellen": 4174,
      "ult": 4175,
      "##cks": 4176,
      "growing": 4177,
      "challenge": 4178,
      "Kraft": 4179,
      "##des": 4180,
      "##nder": 4181,
      "forward": 4182,
      "Programm": 4183,
      "genauso": 4184,
      "slow": 4185,
      "Ländern": 4186,
      "Mich": 4187,
      "##rote": 4188,
      "##rakt": 4189,
      "impact": 4190,
      "Medik": 4191,
      "Our": 4192,
      "fight": 4193,
      "##nal": 4194,
      "zuvor": 4195,
      "verm": 4196,
      "modern": 4197,
      "##ählen": 4198,
      "##gebung": 4199,
      "numbers": 4200,
      "##bau": 4201,
      "##ustain": 4202,
      "realize": 4203,
      "persön": 4204,
      "##erstör": 4205,
      "##arbeitet": 4206,
      "born": 4207,
      "vol": 4208,
      "vert": 4209,
      "stellt": 4210,
      "kn": 4211,
      "##entially": 4212,
      "trotz": 4213,
      "Tats": 4214,
      "sudden": 4215,
      "##orge": 4216,
      "post": 4217,
      "Gemeinschaft": 4218,
      "Krieg": 4219,
      "international": 4220,
      "Fin": 4221,
      "##ilden": 4222,
      "worth": 4223,
      "brought": 4224,
      "zweite": 4225,
      "emp": 4226,
      "##ission": 4227,
      "benöt": 4228,
      "Autos": 4229,
      "crit": 4230,
      "log": 4231,
      "##alien": 4232,
      "ermö": 4233,
      "##osition": 4234,
      "##zeigt": 4235,
      "Revolution": 4236,
      "führt": 4237,
      "meaning": 4238,
      "Familien": 4239,
      "feeling": 4240,
      "developed": 4241,
      "gefunden": 4242,
      "Kat": 4243,
      "##igner": 4244,
      "##schr": 4245,
      "Heute": 4246,
      "physical": 4247,
      "books": 4248,
      "##frastru": 4249,
      "Ihren": 4250,
      "fall": 4251,
      "##ünde": 4252,
      "##außen": 4253,
      "##bert": 4254,
      "##ustrie": 4255,
      "teil": 4256,
      "London": 4257,
      "eins": 4258,
      "white": 4259,
      "##ival": 4260,
      "knowledge": 4261,
      "blood": 4262,
      "unseres": 4263,
      "Hoff": 4264,
      "##ances": 4265,
      "##gefühl": 4266,
      "enter": 4267,
      "Sehen": 4268,
      "Europ": 4269,
      "Unsere": 4270,
      "##oon": 4271,
      "schre": 4272,
      "verbunden": 4273,
      "English": 4274,
      "Labor": 4275,
      "force": 4276,
      "aufzu": 4277,
      "##ried": 4278,
      "größten": 4279,
      "Wissenschaftler": 4280,
      "Frei": 4281,
      "emer": 4282,
      "tw": 4283,
      "comb": 4284,
      "Fisch": 4285,
      "farm": 4286,
      "##inos": 4287,
      "##atten": 4288,
      "sieben": 4289,
      "sterben": 4290,
      "kaufen": 4291,
      "nice": 4292,
      "##ress": 4293,
      "##ieten": 4294,
      "##zeuge": 4295,
      "##merk": 4296,
      "##ynam": 4297,
      "##useum": 4298,
      "Wert": 4299,
      "##ückt": 4300,
      "24": 4301,
      "led": 4302,
      "##iber": 4303,
      "Prof": 4304,
      "flo": 4305,
      "transform": 4306,
      "giving": 4307,
      "##ouble": 4308,
      "##letz": 4309,
      "##bene": 4310,
      "##äuf": 4311,
      "komplex": 4312,
      "Alle": 4313,
      "wrote": 4314,
      "##ufen": 4315,
      "##ängt": 4316,
      "langsam": 4317,
      "running": 4318,
      "##bten": 4319,
      "##jekte": 4320,
      "größte": 4321,
      "seems": 4322,
      "scheint": 4323,
      "Bedeut": 4324,
      "et": 4325,
      "##druck": 4326,
      "liebe": 4327,
      "center": 4328,
      "##aliforn": 4329,
      "##ove": 4330,
      "##mosph": 4331,
      "##isst": 4332,
      "hast": 4333,
      "erk": 4334,
      "Arbeits": 4335,
      ".,": 4336,
      "CO": 4337,
      "lesen": 4338,
      "national": 4339,
      "##chie": 4340,
      "theory": 4341,
      "literally": 4342,
      "Är": 4343,
      "##go": 4344,
      "draußen": 4345,
      "technologies": 4346,
      "redu": 4347,
      "Jeder": 4348,
      "stra": 4349,
      "welches": 4350,
      "##inzip": 4351,
      "fair": 4352,
      "favor": 4353,
      "##zw": 4354,
      "##ätze": 4355,
      "climate": 4356,
      "Studenten": 4357,
      "Jed": 4358,
      "Sol": 4359,
      "Natürlich": 4360,
      "bor": 4361,
      "##äuft": 4362,
      "similar": 4363,
      "##prochen": 4364,
      "Medien": 4365,
      "positive": 4366,
      "beeinfl": 4367,
      "fa": 4368,
      "tief": 4369,
      "##sh": 4370,
      "##äß": 4371,
      "##aren": 4372,
      "spread": 4373,
      "ausge": 4374,
      "197": 4375,
      "##by": 4376,
      "##aul": 4377,
      "##auft": 4378,
      "herauszu": 4379,
      "##unehmen": 4380,
      "##ieg": 4381,
      "##idge": 4382,
      "map": 4383,
      "prin": 4384,
      "##igkeiten": 4385,
      "Alles": 4386,
      "gebaut": 4387,
      "erinnern": 4388,
      "##völkerung": 4389,
      "City": 4390,
      "##leep": 4391,
      "rein": 4392,
      "understanding": 4393,
      "medic": 4394,
      "scientists": 4395,
      "miles": 4396,
      "nahm": 4397,
      "Eis": 4398,
      "Muster": 4399,
      "ign": 4400,
      "##uit": 4401,
      "##obody": 4402,
      "verschw": 4403,
      "visual": 4404,
      "hundreds": 4405,
      "glücklich": 4406,
      "sea": 4407,
      "neigh": 4408,
      "starting": 4409,
      "type": 4410,
      "schließlich": 4411,
      "Gef": 4412,
      "gelernt": 4413,
      "Bürger": 4414,
      "hine": 4415,
      "vill": 4416,
      "##oid": 4417,
      "##jen": 4418,
      "##sta": 4419,
      "##entlichen": 4420,
      "Schritt": 4421,
      "##assion": 4422,
      "anyone": 4423,
      "Brit": 4424,
      "Rück": 4425,
      "civil": 4426,
      "bewusst": 4427,
      "##olz": 4428,
      "ersch": 4429,
      "erschaffen": 4430,
      "gewesen": 4431,
      "Kranken": 4432,
      "Technologien": 4433,
      "serious": 4434,
      "Bas": 4435,
      "Tw": 4436,
      "ref": 4437,
      "##ktor": 4438,
      "##ochen": 4439,
      "Erw": 4440,
      "##kraft": 4441,
      "##ja": 4442,
      "##agieren": 4443,
      "##aster": 4444,
      "electric": 4445,
      "##ünstler": 4446,
      "Technik": 4447,
      "Don": 4448,
      "Mot": 4449,
      "fert": 4450,
      "fanden": 4451,
      "gives": 4452,
      "path": 4453,
      "Verbindung": 4454,
      "North": 4455,
      "San": 4456,
      "requ": 4457,
      "##cker": 4458,
      "Recht": 4459,
      "##ploy": 4460,
      "images": 4461,
      "curr": 4462,
      "audience": 4463,
      "millions": 4464,
      "sehe": 4465,
      "alone": 4466,
      "flu": 4467,
      "passieren": 4468,
      "Blut": 4469,
      "suggest": 4470,
      "sustain": 4471,
      "##weis": 4472,
      "telling": 4473,
      "größer": 4474,
      "tools": 4475,
      "Rad": 4476,
      "soon": 4477,
      "erfolg": 4478,
      "##iko": 4479,
      "##zeitig": 4480,
      "erklären": 4481,
      "Reihe": 4482,
      "##oes": 4483,
      "##ativ": 4484,
      "prop": 4485,
      "prom": 4486,
      "guess": 4487,
      "finan": 4488,
      "gegenüber": 4489,
      "syn": 4490,
      "##ctors": 4491,
      "Platz": 4492,
      "behand": 4493,
      "schwar": 4494,
      "bist": 4495,
      "block": 4496,
      "wachsen": 4497,
      "##kre": 4498,
      "dead": 4499,
      "playing": 4500,
      "Süd": 4501,
      "hosp": 4502,
      "ice": 4503,
      "##iation": 4504,
      "##ores": 4505,
      "##otyp": 4506,
      "##oper": 4507,
      "text": 4508,
      "##produ": 4509,
      "Wahrheit": 4510,
      "Tatsache": 4511,
      "pen": 4512,
      "stage": 4513,
      "Stre": 4514,
      "jemals": 4515,
      "issue": 4516,
      "AI": 4517,
      "fail": 4518,
      "##ube": 4519,
      "aufge": 4520,
      "proper": 4521,
      "daraus": 4522,
      "Team": 4523,
      "unterst": 4524,
      "suff": 4525,
      "wissenschaft": 4526,
      "geworden": 4527,
      "##afft": 4528,
      "Zent": 4529,
      "cars": 4530,
      "sell": 4531,
      "##ersp": 4532,
      "Arm": 4533,
      "##rift": 4534,
      "avail": 4535,
      "Super": 4536,
      "nimmt": 4537,
      "übr": 4538,
      "creating": 4539,
      "##gewöhn": 4540,
      "folgen": 4541,
      "##ee": 4542,
      "##bend": 4543,
      "unbe": 4544,
      "196": 4545,
      "hinaus": 4546,
      "polic": 4547,
      "##gessen": 4548,
      "eye": 4549,
      "##älfte": 4550,
      "Richtung": 4551,
      "discovered": 4552,
      "optim": 4553,
      "dimens": 4554,
      "bew": 4555,
      "revolution": 4556,
      "arr": 4557,
      "##lauf": 4558,
      "development": 4559,
      "connect": 4560,
      "Look": 4561,
      "Besch": 4562,
      "est": 4563,
      "##itäten": 4564,
      "bege": 4565,
      "deshalb": 4566,
      "Where": 4567,
      "##iled": 4568,
      "##hnung": 4569,
      "Krankheit": 4570,
      "includ": 4571,
      "With": 4572,
      "mom": 4573,
      "tö": 4574,
      "miteinander": 4575,
      "mob": 4576,
      "mache": 4577,
      "among": 4578,
      "Anzahl": 4579,
      "travel": 4580,
      "##iod": 4581,
      "##äus": 4582,
      "##test": 4583,
      "##urity": 4584,
      "aussehen": 4585,
      "überr": 4586,
      "nachdem": 4587,
      "möchten": 4588,
      "##vention": 4589,
      "Tit": 4590,
      "dro": 4591,
      "##son": 4592,
      "neben": 4593,
      "##wegen": 4594,
      "concept": 4595,
      "##ified": 4596,
      "road": 4597,
      "##wirtschaft": 4598,
      "##clear": 4599,
      "Metho": 4600,
      "movement": 4601,
      "##ende": 4602,
      "##ules": 4603,
      "##zens": 4604,
      "showed": 4605,
      "verloren": 4606,
      "changing": 4607,
      "Tem": 4608,
      "Tatsächlich": 4609,
      "kleines": 4610,
      "Produkt": 4611,
      "Fuß": 4612,
      "##alter": 4613,
      "Einige": 4614,
      "beginnt": 4615,
      "Ira": 4616,
      "Ök": 4617,
      "##put": 4618,
      "aren": 4619,
      "##zeugt": 4620,
      "anfangen": 4621,
      "absolutely": 4622,
      "Afghanistan": 4623,
      "eth": 4624,
      "##gie": 4625,
      "wert": 4626,
      "##blick": 4627,
      "Face": 4628,
      "Mathemat": 4629,
      "Situation": 4630,
      "raus": 4631,
      "##rolle": 4632,
      "##örter": 4633,
      "zehn": 4634,
      "Vortrag": 4635,
      "Rel": 4636,
      "tend": 4637,
      "##icans": 4638,
      "developing": 4639,
      "Sicht": 4640,
      "##bre": 4641,
      "##pecially": 4642,
      "Christ": 4643,
      "recently": 4644,
      "##gor": 4645,
      "sofort": 4646,
      "Stimme": 4647,
      "spir": 4648,
      "Entwicklungs": 4649,
      "pur": 4650,
      "##asing": 4651,
      "##itten": 4652,
      "##ibr": 4653,
      "truth": 4654,
      "industry": 4655,
      "Aufgabe": 4656,
      "Präs": 4657,
      "Kam": 4658,
      "achie": 4659,
      "##ased": 4660,
      "##lebt": 4661,
      "##head": 4662,
      "dein": 4663,
      "plötzlich": 4664,
      "attack": 4665,
      "Som": 4666,
      "danach": 4667,
      "falls": 4668,
      "la": 4669,
      "song": 4670,
      "gezeigt": 4671,
      "schrieb": 4672,
      "Stat": 4673,
      "Wirklich": 4674,
      "findet": 4675,
      "kleiner": 4676,
      "benef": 4677,
      "designed": 4678,
      "Gewalt": 4679,
      "Chinese": 4680,
      "Ris": 4681,
      "hil": 4682,
      "toll": 4683,
      "##üssel": 4684,
      "konzentr": 4685,
      "##sichtlich": 4686,
      "Viel": 4687,
      "talked": 4688,
      "Umgebung": 4689,
      "Deshalb": 4690,
      "incredibly": 4691,
      "rate": 4692,
      "##hy": 4693,
      "infl": 4694,
      "##umb": 4695,
      "chance": 4696,
      "resources": 4697,
      "guten": 4698,
      "Ihrem": 4699,
      "Phys": 4700,
      "Städte": 4701,
      "stellte": 4702,
      "cop": 4703,
      "##äm": 4704,
      "entscheiden": 4705,
      "##bsite": 4706,
      "Studie": 4707,
      "Eigen": 4708,
      "egal": 4709,
      "pack": 4710,
      "convers": 4711,
      "bekannt": 4712,
      "asking": 4713,
      "issues": 4714,
      "David": 4715,
      "Austr": 4716,
      "Hel": 4717,
      "Sau": 4718,
      "Will": 4719,
      "fire": 4720,
      "lay": 4721,
      "wall": 4722,
      "##ected": 4723,
      "##anze": 4724,
      "##rael": 4725,
      "Ju": 4726,
      "##aft": 4727,
      "##aly": 4728,
      "shape": 4729,
      "Blick": 4730,
      "beschäft": 4731,
      "Ihrer": 4732,
      "reasons": 4733,
      "voice": 4734,
      "##gorith": 4735,
      "acht": 4736,
      "camp": 4737,
      "fur": 4738,
      "##xy": 4739,
      "##wind": 4740,
      "Teile": 4741,
      "produce": 4742,
      "Aktiv": 4743,
      "Mitte": 4744,
      "Rolle": 4745,
      "source": 4746,
      "##recht": 4747,
      "sold": 4748,
      "genannt": 4749,
      "##änge": 4750,
      "experien": 4751,
      "innovation": 4752,
      "Veränderung": 4753,
      "400": 4754,
      "By": 4755,
      "##uelle": 4756,
      "##lagen": 4757,
      "knows": 4758,
      "period": 4759,
      "cover": 4760,
      "Vorstellung": 4761,
      "depend": 4762,
      "weltweit": 4763,
      "entfernt": 4764,
      "Fä": 4765,
      "Reise": 4766,
      "bekommt": 4767,
      "Bildung": 4768,
      "available": 4769,
      "cy": 4770,
      "touch": 4771,
      "allein": 4772,
      "##ängen": 4773,
      "fing": 4774,
      "##enken": 4775,
      "haven": 4776,
      "##hrung": 4777,
      "sever": 4778,
      "carbon": 4779,
      "##lassen": 4780,
      "##stant": 4781,
      "Sec": 4782,
      "flow": 4783,
      "solution": 4784,
      "verwendet": 4785,
      "##unkte": 4786,
      "Demokrat": 4787,
      "Bedeutung": 4788,
      "Während": 4789,
      "##of": 4790,
      "##wert": 4791,
      "lived": 4792,
      "Größe": 4793,
      "Regier": 4794,
      "##ünden": 4795,
      "evidence": 4796,
      "komplett": 4797,
      "involved": 4798,
      "CO2": 4799,
      "laufen": 4800,
      "situation": 4801,
      "##eed": 4802,
      "##racy": 4803,
      "Erfolg": 4804,
      "save": 4805,
      "##teilt": 4806,
      "subject": 4807,
      "##worten": 4808,
      "Hälfte": 4809,
      "Sonnen": 4810,
      "##hält": 4811,
      "##roffen": 4812,
      "##ags": 4813,
      "Beg": 4814,
      "##achstum": 4815,
      "Facebook": 4816,
      "Bel": 4817,
      "Preis": 4818,
      "baby": 4819,
      "tiny": 4820,
      "##uell": 4821,
      "##cin": 4822,
      "##agement": 4823,
      "react": 4824,
      "solar": 4825,
      "sonst": 4826,
      "Eink": 4827,
      "Nie": 4828,
      "Sat": 4829,
      "Such": 4830,
      "iP": 4831,
      "sor": 4832,
      "Realität": 4833,
      "nachzu": 4834,
      "solve": 4835,
      "appear": 4836,
      "choice": 4837,
      "milit": 4838,
      "late": 4839,
      "##unktion": 4840,
      "Chem": 4841,
      "compassion": 4842,
      "quality": 4843,
      "speed": 4844,
      "elekt": 4845,
      "soziale": 4846,
      "Herausforderung": 4847,
      ".“": 4848,
      "Dor": 4849,
      "Kil": 4850,
      "##ragen": 4851,
      "##dlich": 4852,
      "##omb": 4853,
      "veröff": 4854,
      "list": 4855,
      "##osystem": 4856,
      "Erd": 4857,
      "nachdenken": 4858,
      "##ändig": 4859,
      "##ichtet": 4860,
      "benutzt": 4861,
      "pictures": 4862,
      "Maschine": 4863,
      "##yond": 4864,
      "##abet": 4865,
      "gefähr": 4866,
      "##gemein": 4867,
      "##sätz": 4868,
      "bezahl": 4869,
      "especially": 4870,
      "becomes": 4871,
      "protect": 4872,
      "Foto": 4873,
      "East": 4874,
      "Wind": 4875,
      "ce": 4876,
      "kü": 4877,
      "samm": 4878,
      "refle": 4879,
      "##iers": 4880,
      "function": 4881,
      "niemals": 4882,
      "yes": 4883,
      "def": 4884,
      "blind": 4885,
      "Prinzip": 4886,
      "Meinung": 4887,
      "message": 4888,
      "hoffe": 4889,
      "Nord": 4890,
      "ak": 4891,
      "länger": 4892,
      "tat": 4893,
      "##gg": 4894,
      "##DS": 4895,
      "beide": 4896,
      "Schü": 4897,
      "Mex": 4898,
      "generation": 4899,
      "Straßen": 4900,
      "fix": 4901,
      "##ode": 4902,
      "##ique": 4903,
      "bigger": 4904,
      "street": 4905,
      "Generation": 4906,
      "predict": 4907,
      "##legt": 4908,
      "##äsent": 4909,
      "computers": 4910,
      "Vide": 4911,
      "##zte": 4912,
      "##lim": 4913,
      "##itation": 4914,
      "jemanden": 4915,
      "Forschung": 4916,
      "writing": 4917,
      "Ken": 4918,
      "Von": 4919,
      "##inne": 4920,
      "##utage": 4921,
      "Amerika": 4922,
      "Are": 4923,
      "Col": 4924,
      "Of": 4925,
      "nine": 4926,
      "##aß": 4927,
      "##onstr": 4928,
      "##isierung": 4929,
      "##roh": 4930,
      "ann": 4931,
      "except": 4932,
      "putting": 4933,
      "Entscheidungen": 4934,
      "erreicht": 4935,
      "First": 4936,
      "Tür": 4937,
      "##vert": 4938,
      "conv": 4939,
      "Hey": 4940,
      "bekam": 4941,
      "Iran": 4942,
      "##oo": 4943,
      "##zü": 4944,
      "enth": 4945,
      "groups": 4946,
      "total": 4947,
      "erfolgreich": 4948,
      "##SA": 4949,
      "mögen": 4950,
      "general": 4951,
      "Karte": 4952,
      "Nur": 4953,
      "Psych": 4954,
      "blau": 4955,
      "fem": 4956,
      "fliegen": 4957,
      "##lage": 4958,
      "alten": 4959,
      "trust": 4960,
      "medical": 4961,
      "fundamental": 4962,
      "ball": 4963,
      "gingen": 4964,
      "oh": 4965,
      "drive": 4966,
      "ziehen": 4967,
      "girls": 4968,
      "rich": 4969,
      "##ißen": 4970,
      "##mar": 4971,
      "##ishing": 4972,
      "einzu": 4973,
      "##wood": 4974,
      "zeige": 4975,
      "##utzutage": 4976,
      "Medizin": 4977,
      "Tat": 4978,
      "##möglich": 4979,
      "##kel": 4980,
      "##arily": 4981,
      "Geist": 4982,
      "Straße": 4983,
      "likely": 4984,
      "Eff": 4985,
      "Meter": 4986,
      "aw": 4987,
      "sleep": 4988,
      "table": 4989,
      "##rig": 4990,
      "##feren": 4991,
      "##itch": 4992,
      "Inte": 4993,
      "moder": 4994,
      "##akes": 4995,
      "Zahlen": 4996,
      "Bä": 4997,
      "Druck": 4998,
      "sent": 4999,
      "##band": 5000,
      "##öst": 5001,
      "beyond": 5002,
      "software": 5003,
      "forest": 5004,
      "##ierend": 5005,
      "##ify": 5006,
      "Sex": 5007,
      "Mole": 5008,
      "direct": 5009,
      "Firma": 5010,
      "kontroll": 5011,
      "Europa": 5012,
      "Mc": 5013,
      "evol": 5014,
      "died": 5015,
      "gegeben": 5016,
      "##adem": 5017,
      "Schauen": 5018,
      "Who": 5019,
      "hinzu": 5020,
      "integr": 5021,
      "Kosten": 5022,
      "##krank": 5023,
      "links": 5024,
      "daher": 5025,
      "bacter": 5026,
      "fahren": 5027,
      "##ette": 5028,
      "genommen": 5029,
      "conscious": 5030,
      "progress": 5031,
      "sounds": 5032,
      "Hir": 5033,
      "rules": 5034,
      "##ped": 5035,
      "##ille": 5036,
      "##esser": 5037,
      "##lied": 5038,
      "Einz": 5039,
      "bestimmt": 5040,
      "dream": 5041,
      "Ding": 5042,
      "op": 5043,
      "##gliche": 5044,
      "towards": 5045,
      "necess": 5046,
      "strateg": 5047,
      "Sonne": 5048,
      "##asen": 5049,
      "##itor": 5050,
      "##indern": 5051,
      "Nachrichten": 5052,
      "Israel": 5053,
      "schneller": 5054,
      "Wohl": 5055,
      "Bab": 5056,
      "##esh": 5057,
      "##ellow": 5058,
      "Mitgefühl": 5059,
      "drug": 5060,
      "##ällt": 5061,
      "##aschen": 5062,
      "##oming": 5063,
      "search": 5064,
      "##schieden": 5065,
      "rock": 5066,
      "Strom": 5067,
      "device": 5068,
      "Maybe": 5069,
      "Bakter": 5070,
      "##room": 5071,
      "Maß": 5072,
      "several": 5073,
      "wish": 5074,
      "##iar": 5075,
      "ine": 5076,
      "##umor": 5077,
      "machten": 5078,
      "##ously": 5079,
      "smart": 5080,
      "effic": 5081,
      "setzen": 5082,
      "##jenigen": 5083,
      "breat": 5084,
      "ca": 5085,
      "danger": 5086,
      "##sequen": 5087,
      "##ounds": 5088,
      "interessiert": 5089,
      "capital": 5090,
      "drugs": 5091,
      "##kung": 5092,
      "##stre": 5093,
      "peace": 5094,
      "##arbeiten": 5095,
      "Fähigkeiten": 5096,
      "motiv": 5097,
      "Ser": 5098,
      "Vol": 5099,
      "##iate": 5100,
      "##ford": 5101,
      "##seite": 5102,
      "brachte": 5103,
      "geschieht": 5104,
      "Vereinigten": 5105,
      "Hinter": 5106,
      "Kolle": 5107,
      "##wesen": 5108,
      "##rodu": 5109,
      "##schw": 5110,
      "##plant": 5111,
      "##gren": 5112,
      "particularly": 5113,
      "Beziehung": 5114,
      "Papier": 5115,
      "##oß": 5116,
      "compet": 5117,
      "geboren": 5118,
      "##itzt": 5119,
      "Oberfläche": 5120,
      "herauszufinden": 5121,
      "Ag": 5122,
      "##kehr": 5123,
      "##pped": 5124,
      "confl": 5125,
      "##ätzen": 5126,
      "anybody": 5127,
      "##erstoff": 5128,
      "AIDS": 5129,
      "##öp": 5130,
      "##imal": 5131,
      "Bewusst": 5132,
      "Kommun": 5133,
      "virus": 5134,
      "##ilosoph": 5135,
      "Hoch": 5136,
      "TV": 5137,
      "frei": 5138,
      "##ometer": 5139,
      "##ienst": 5140,
      "track": 5141,
      "liegen": 5142,
      "Plan": 5143,
      "verwand": 5144,
      "walking": 5145,
      "Männ": 5146,
      "nennt": 5147,
      "geh": 5148,
      "Verl": 5149,
      "Fehler": 5150,
      "vision": 5151,
      "absolut": 5152,
      "##bildung": 5153,
      "faszin": 5154,
      "akt": 5155,
      "##gth": 5156,
      "##mung": 5157,
      "onto": 5158,
      "##anda": 5159,
      "nein": 5160,
      "moved": 5161,
      "action": 5162,
      "Jahrze": 5163,
      "##cen": 5164,
      "##sth": 5165,
      "stimmt": 5166,
      "office": 5167,
      "minute": 5168,
      "character": 5169,
      "##atte": 5170,
      "##schie": 5171,
      "screen": 5172,
      "lieben": 5173,
      "potential": 5174,
      "Mark": 5175,
      "##ms": 5176,
      "gefr": 5177,
      "Any": 5178,
      "scientific": 5179,
      "extraord": 5180,
      "Ergebnis": 5181,
      "hit": 5182,
      "park": 5183,
      "##organ": 5184,
      "rece": 5185,
      "unc": 5186,
      "##ossen": 5187,
      "schools": 5188,
      "games": 5189,
      "##0s": 5190,
      "##itet": 5191,
      "##indungen": 5192,
      "Software": 5193,
      "##ada": 5194,
      "einfache": 5195,
      "basic": 5196,
      "neues": 5197,
      "largest": 5198,
      "Gruppen": 5199,
      "nahe": 5200,
      "gesamte": 5201,
      "mount": 5202,
      "##back": 5203,
      "wirtschaft": 5204,
      "Islam": 5205,
      "sprach": 5206,
      "Politik": 5207,
      "Gu": 5208,
      "Terr": 5209,
      "bank": 5210,
      "transport": 5211,
      "sozialen": 5212,
      "Auch": 5213,
      "Det": 5214,
      "Gol": 5215,
      "Wand": 5216,
      "zerstör": 5217,
      "##bald": 5218,
      "##leg": 5219,
      "showing": 5220,
      "examples": 5221,
      "University": 5222,
      "##wirkungen": 5223,
      "obviously": 5224,
      "After": 5225,
      "Kan": 5226,
      "dachten": 5227,
      "lok": 5228,
      "wid": 5229,
      "##amat": 5230,
      "repl": 5231,
      "door": 5232,
      "##abhäng": 5233,
      "Behand": 5234,
      "student": 5235,
      "irgende": 5236,
      "150": 5237,
      "Universität": 5238,
      "begannen": 5239,
      "materials": 5240,
      "cause": 5241,
      "##igr": 5242,
      "erfor": 5243,
      "##ikel": 5244,
      "certainly": 5245,
      "Experiment": 5246,
      "Künstler": 5247,
      "Ung": 5248,
      "hot": 5249,
      "äl": 5250,
      "##lungen": 5251,
      "##viel": 5252,
      "##igens": 5253,
      "Alter": 5254,
      "##ological": 5255,
      "##auten": 5256,
      "geschrieben": 5257,
      "Studien": 5258,
      "multi": 5259,
      "Hoffnung": 5260,
      "further": 5261,
      "Russ": 5262,
      "verurs": 5263,
      "Genau": 5264,
      "Seiten": 5265,
      "##hre": 5266,
      "separ": 5267,
      "verfü": 5268,
      "context": 5269,
      "plant": 5270,
      "activ": 5271,
      "terror": 5272,
      "##nehmer": 5273,
      "##merksamkeit": 5274,
      "conflict": 5275,
      "##ises": 5276,
      "##lei": 5277,
      "bee": 5278,
      "##ickt": 5279,
      "##ussen": 5280,
      "warm": 5281,
      "Schön": 5282,
      "##selbe": 5283,
      "histor": 5284,
      "Bücher": 5285,
      "totally": 5286,
      "Schulen": 5287,
      "wichtiger": 5288,
      "mut": 5289,
      "##res": 5290,
      "##sm": 5291,
      "##bur": 5292,
      "##onse": 5293,
      "##teile": 5294,
      "zuerst": 5295,
      "##ami": 5296,
      "anstatt": 5297,
      "##ivität": 5298,
      "tragen": 5299,
      "wants": 5300,
      "gesprochen": 5301,
      "Büro": 5302,
      "##ämpfen": 5303,
      "hinein": 5304,
      "Baby": 5305,
      "Fil": 5306,
      "Glau": 5307,
      "gas": 5308,
      "jähr": 5309,
      "##feld": 5310,
      "##aute": 5311,
      "heut": 5312,
      "##uchen": 5313,
      "Aufmerksamkeit": 5314,
      "starts": 5315,
      "projects": 5316,
      "chemical": 5317,
      "journey": 5318,
      "Rich": 5319,
      "nobody": 5320,
      "##aging": 5321,
      "##unger": 5322,
      "##weisen": 5323,
      "Leid": 5324,
      "biggest": 5325,
      "teachers": 5326,
      "exciting": 5327,
      "ernst": 5328,
      "Uhr": 5329,
      "##verty": 5330,
      "extremely": 5331,
      "Bank": 5332,
      "Ed": 5333,
      "cross": 5334,
      "##fel": 5335,
      "gek": 5336,
      "großer": 5337,
      "security": 5338,
      "Dorf": 5339,
      "Fle": 5340,
      "fam": 5341,
      "##bung": 5342,
      "Bevölkerung": 5343,
      "everywhere": 5344,
      "bewegt": 5345,
      "ähnlich": 5346,
      "Dah": 5347,
      "Pflanzen": 5348,
      "Ress": 5349,
      "Wörter": 5350,
      "##ikal": 5351,
      "Telef": 5352,
      "carry": 5353,
      "gleichzeitig": 5354,
      "irgendw": 5355,
      "results": 5356,
      "Sm": 5357,
      "Wel": 5358,
      "Wür": 5359,
      "bill": 5360,
      "bald": 5361,
      "passierte": 5362,
      "boy": 5363,
      "Wieder": 5364,
      "particip": 5365,
      "thousand": 5366,
      "memory": 5367,
      "represent": 5368,
      "higher": 5369,
      "Bill": 5370,
      "Gel": 5371,
      "##indest": 5372,
      "threat": 5373,
      "##isions": 5374,
      "##enschaft": 5375,
      "sahen": 5376,
      "happiness": 5377,
      "dramat": 5378,
      "##teilen": 5379,
      "private": 5380,
      "deliver": 5381,
      "neighbor": 5382,
      "camera": 5383,
      "##isco": 5384,
      "meant": 5385,
      "notice": 5386,
      "lose": 5387,
      "Regeln": 5388,
      "clean": 5389,
      "violence": 5390,
      "Arab": 5391,
      "Los": 5392,
      "##ny": 5393,
      "##ächen": 5394,
      "Reaktion": 5395,
      "##plicated": 5396,
      "Demokratie": 5397,
      "Kreat": 5398,
      "Most": 5399,
      "dynam": 5400,
      "nar": 5401,
      "##set": 5402,
      "##icle": 5403,
      "##nete": 5404,
      "##esehen": 5405,
      "region": 5406,
      "intelligen": 5407,
      "##ghter": 5408,
      "früher": 5409,
      "kosten": 5410,
      "Zugang": 5411,
      "##pidem": 5412,
      "ignor": 5413,
      "jen": 5414,
      "##more": 5415,
      "Orte": 5416,
      "transl": 5417,
      "verlassen": 5418,
      "connected": 5419,
      "beobachten": 5420,
      "Gut": 5421,
      "Hin": 5422,
      "Himm": 5423,
      "Op": 5424,
      "apart": 5425,
      "gern": 5426,
      "kr": 5427,
      "member": 5428,
      "rot": 5429,
      "roll": 5430,
      "rap": 5431,
      "##unately": 5432,
      "verh": 5433,
      "##gendes": 5434,
      "account": 5435,
      "sitzen": 5436,
      "wichtige": 5437,
      "bestimmten": 5438,
      "rain": 5439,
      "##ourcen": 5440,
      "role": 5441,
      "graph": 5442,
      "continue": 5443,
      "Können": 5444,
      "Baum": 5445,
      "Niger": 5446,
      "##wür": 5447,
      "überw": 5448,
      "trial": 5449,
      "safe": 5450,
      "response": 5451,
      "intellig": 5452,
      "##trauen": 5453,
      "Zust": 5454,
      "fill": 5455,
      "kreat": 5456,
      "##wasser": 5457,
      "##krie": 5458,
      "##erve": 5459,
      "##teten": 5460,
      "sequen": 5461,
      "##imin": 5462,
      "##inken": 5463,
      "poverty": 5464,
      "versuchte": 5465,
      "ready": 5466,
      "supposed": 5467,
      "Act": 5468,
      "junge": 5469,
      "sand": 5470,
      "vac": 5471,
      "##how": 5472,
      "gearbeitet": 5473,
      "Armut": 5474,
      "mis": 5475,
      "poll": 5476,
      "ansehen": 5477,
      "##deck": 5478,
      "sod": 5479,
      "##the": 5480,
      "Frank": 5481,
      "named": 5482,
      "jobs": 5483,
      "Kontrolle": 5484,
      "democracy": 5485,
      "##leist": 5486,
      "##ements": 5487,
      "Regen": 5488,
      "Einfluss": 5489,
      "##altung": 5490,
      "finde": 5491,
      "Monaten": 5492,
      "capt": 5493,
      "##brauch": 5494,
      "Ozean": 5495,
      "Molekü": 5496,
      "Bra": 5497,
      "Morgen": 5498,
      "Tro": 5499,
      "citi": 5500,
      "kur": 5501,
      "labor": 5502,
      "sil": 5503,
      "##sc": 5504,
      "ständig": 5505,
      "Mehr": 5506,
      "##struction": 5507,
      "##underte": 5508,
      "Spez": 5509,
      "favorite": 5510,
      "##win": 5511,
      "inf": 5512,
      "##ley": 5513,
      "##astic": 5514,
      "quant": 5515,
      "kompl": 5516,
      "##ossible": 5517,
      "Konzept": 5518,
      "trees": 5519,
      "eventually": 5520,
      "birth": 5521,
      "lern": 5522,
      "##fs": 5523,
      "##erap": 5524,
      "##ativen": 5525,
      "Erinner": 5526,
      "Amerikaner": 5527,
      "models": 5528,
      "##dress": 5529,
      "##zeichnet": 5530,
      "individuals": 5531,
      "Sw": 5532,
      "ehr": 5533,
      "##lern": 5534,
      "##urr": 5535,
      "##schung": 5536,
      "Sohn": 5537,
      "Theorie": 5538,
      "##peratur": 5539,
      "Gesetz": 5540,
      "England": 5541,
      "näher": 5542,
      "urban": 5543,
      "Innovation": 5544,
      "Even": 5545,
      "##rel": 5546,
      "##unt": 5547,
      "##ulate": 5548,
      "adult": 5549,
      "Gene": 5550,
      "bessere": 5551,
      "faster": 5552,
      "##ützt": 5553,
      "watching": 5554,
      "crazy": 5555,
      "rid": 5556,
      "##ered": 5557,
      "##iegel": 5558,
      "altern": 5559,
      "immed": 5560,
      "##ground": 5561,
      "empf": 5562,
      "African": 5563,
      "etc": 5564,
      "Evolution": 5565,
      "Trä": 5566,
      "##ror": 5567,
      "##isis": 5568,
      "meist": 5569,
      "##abel": 5570,
      "activity": 5571,
      "natür": 5572,
      "Galax": 5573,
      "Port": 5574,
      "tar": 5575,
      "##ery": 5576,
      "##uchs": 5577,
      "Menschheit": 5578,
      "Eines": 5579,
      "essentially": 5580,
      "Relig": 5581,
      "NA": 5582,
      "Sand": 5583,
      "mine": 5584,
      "##totyp": 5585,
      "##tex": 5586,
      "##verse": 5587,
      "##front": 5588,
      "clin": 5589,
      "tells": 5590,
      "Gerät": 5591,
      "offensichtlich": 5592,
      "verbessern": 5593,
      "35": 5594,
      "bunch": 5595,
      "laun": 5596,
      "nied": 5597,
      "##üst": 5598,
      "##ari": 5599,
      "##erei": 5600,
      "##odies": 5601,
      "passion": 5602,
      "Nachbar": 5603,
      "medizin": 5604,
      "meth": 5605,
      "return": 5606,
      "perspect": 5607,
      "concern": 5608,
      "richtige": 5609,
      "push": 5610,
      "prakt": 5611,
      "wild": 5612,
      "##uellen": 5613,
      "gehe": 5614,
      "##abl": 5615,
      "plants": 5616,
      "Ord": 5617,
      "disapp": 5618,
      "Stelle": 5619,
      "skin": 5620,
      "Zeug": 5621,
      "richtigen": 5622,
      "nuclear": 5623,
      "village": 5624,
      "Schüler": 5625,
      "Terror": 5626,
      "Asp": 5627,
      "Bot": 5628,
      "Bud": 5629,
      "Hy": 5630,
      "Oper": 5631,
      "##obil": 5632,
      "Washing": 5633,
      "spezie": 5634,
      "grew": 5635,
      "position": 5636,
      "waste": 5637,
      "bleibt": 5638,
      "Krankheiten": 5639,
      "MI": 5640,
      "Sign": 5641,
      "bilden": 5642,
      "##joy": 5643,
      "##atory": 5644,
      "inform": 5645,
      "worse": 5646,
      "##ikation": 5647,
      "tru": 5648,
      "movie": 5649,
      "creative": 5650,
      "communities": 5651,
      "teacher": 5652,
      "conditions": 5653,
      "Firmen": 5654,
      "einzelne": 5655,
      "suddenly": 5656,
      "Daher": 5657,
      "fine": 5658,
      "nation": 5659,
      "site": 5660,
      "##ohl": 5661,
      "##mus": 5662,
      "west": 5663,
      "vergessen": 5664,
      "##ielten": 5665,
      "shown": 5666,
      "finding": 5667,
      "##ählt": 5668,
      "##schlag": 5669,
      "programm": 5670,
      "specific": 5671,
      "wussten": 5672,
      "hospital": 5673,
      "##windigkeit": 5674,
      "galax": 5675,
      "task": 5676,
      "##edom": 5677,
      "##ilities": 5678,
      "fore": 5679,
      "goal": 5680,
      "ihres": 5681,
      "brains": 5682,
      "Gebiet": 5683,
      "affect": 5684,
      "emotion": 5685,
      "Mr": 5686,
      "##will": 5687,
      "rele": 5688,
      "##ables": 5689,
      "buildings": 5690,
      "2000": 5691,
      "collabor": 5692,
      "objects": 5693,
      "Washington": 5694,
      "Sim": 5695,
      "domin": 5696,
      "##rech": 5697,
      "##agr": 5698,
      "Vergangen": 5699,
      "indeed": 5700,
      "großes": 5701,
      "ended": 5702,
      "Beispiele": 5703,
      "sorts": 5704,
      "choose": 5705,
      "bemerken": 5706,
      "Invest": 5707,
      "dete": 5708,
      "##kennt": 5709,
      "remark": 5710,
      "##schluss": 5711,
      "colleag": 5712,
      "##fet": 5713,
      "##amin": 5714,
      "##ils": 5715,
      "##imen": 5716,
      "##ays": 5717,
      "diesel": 5718,
      "shift": 5719,
      "##ruption": 5720,
      "##griff": 5721,
      "möglichen": 5722,
      "impossible": 5723,
      "phen": 5724,
      "sn": 5725,
      "##ech": 5726,
      "##zwe": 5727,
      "##ägt": 5728,
      "##entliche": 5729,
      "##ulpt": 5730,
      "Prote": 5731,
      "somewhere": 5732,
      "##aterie": 5733,
      "Spaß": 5734,
      "prec": 5735,
      "stress": 5736,
      "Grenzen": 5737,
      "Twitter": 5738,
      "Hall": 5739,
      "Rau": 5740,
      "Tagen": 5741,
      "swe": 5742,
      "##ex": 5743,
      "##annen": 5744,
      "kannst": 5745,
      "Orten": 5746,
      "##spiel": 5747,
      "##ünft": 5748,
      "Nachricht": 5749,
      "Priv": 5750,
      "larger": 5751,
      "##ausend": 5752,
      "taught": 5753,
      "arbeitete": 5754,
      "extraordinary": 5755,
      "Ker": 5756,
      "bal": 5757,
      "lands": 5758,
      "page": 5759,
      "##cape": 5760,
      "##ires": 5761,
      "anschauen": 5762,
      "erzeugen": 5763,
      "abzu": 5764,
      "Stamm": 5765,
      "Franc": 5766,
      "address": 5767,
      "##tember": 5768,
      "princi": 5769,
      "medicine": 5770,
      "infe": 5771,
      "##indruck": 5772,
      "stick": 5773,
      "Leist": 5774,
      "demonstr": 5775,
      "##prü": 5776,
      "verlieren": 5777,
      "höher": 5778,
      "##ala": 5779,
      "Those": 5780,
      "above": 5781,
      "doc": 5782,
      "##plex": 5783,
      "appl": 5784,
      "Personen": 5785,
      "##ständnis": 5786,
      "author": 5787,
      "hundert": 5788,
      "killed": 5789,
      "Ebene": 5790,
      "Sa": 5791,
      "cat": 5792,
      "##fre": 5793,
      "##erven": 5794,
      "##abr": 5795,
      "enjoy": 5796,
      "zumindest": 5797,
      "##klär": 5798,
      "##ustrial": 5799,
      "##setzt": 5800,
      "Vergangenheit": 5801,
      "High": 5802,
      "lower": 5803,
      "##ued": 5804,
      "##come": 5805,
      "##wh": 5806,
      "##wissen": 5807,
      "##arian": 5808,
      "denkt": 5809,
      "doctor": 5810,
      "deine": 5811,
      "diagn": 5812,
      "##werfen": 5813,
      "Feuer": 5814,
      "forms": 5815,
      "##otel": 5816,
      "signific": 5817,
      "voller": 5818,
      "allowed": 5819,
      "Netzwerk": 5820,
      "erlaubt": 5821,
      "Wirklichkeit": 5822,
      "Mü": 5823,
      "##weder": 5824,
      "##erk": 5825,
      "deut": 5826,
      "erzählt": 5827,
      "respond": 5828,
      "##legenheit": 5829,
      "products": 5830,
      "analys": 5831,
      "aussieht": 5832,
      "Sekunden": 5833,
      "Ok": 5834,
      "cart": 5835,
      "port": 5836,
      "##oke": 5837,
      "##ender": 5838,
      "##auber": 5839,
      "complicated": 5840,
      "Erf": 5841,
      "##stelle": 5842,
      "standing": 5843,
      "Zwei": 5844,
      "massive": 5845,
      "zero": 5846,
      "including": 5847,
      "wife": 5848,
      "##wart": 5849,
      "##stes": 5850,
      "Stu": 5851,
      "check": 5852,
      "Today": 5853,
      "purp": 5854,
      "nachzudenken": 5855,
      "Che": 5856,
      "Kong": 5857,
      "##iqu": 5858,
      "introdu": 5859,
      "##izations": 5860,
      "Konfl": 5861,
      "irgendwo": 5862,
      "earth": 5863,
      "Worte": 5864,
      "Objekt": 5865,
      "erklär": 5866,
      "Spezies": 5867,
      "launch": 5868,
      "echt": 5869,
      "##ücht": 5870,
      "##ürz": 5871,
      "gebracht": 5872,
      "##though": 5873,
      "manche": 5874,
      "##osm": 5875,
      "usually": 5876,
      "clos": 5877,
      "training": 5878,
      "traditional": 5879,
      "produzieren": 5880,
      "fertig": 5881,
      "Kern": 5882,
      "burn": 5883,
      "cases": 5884,
      "##mark": 5885,
      "##dessen": 5886,
      "##amme": 5887,
      "alive": 5888,
      "##merz": 5889,
      "##pts": 5890,
      "##plan": 5891,
      "##räfte": 5892,
      "wait": 5893,
      "allows": 5894,
      "afford": 5895,
      "increase": 5896,
      "Mathematik": 5897,
      "Bakterien": 5898,
      "Richard": 5899,
      "truly": 5900,
      "99": 5901,
      "Haut": 5902,
      "Like": 5903,
      "mist": 5904,
      "tä": 5905,
      "##ham": 5906,
      "##etze": 5907,
      "stär": 5908,
      "interview": 5909,
      "studies": 5910,
      "arbeitet": 5911,
      "emotional": 5912,
      "discuss": 5913,
      "schreck": 5914,
      "phenomen": 5915,
      "Del": 5916,
      "Somet": 5917,
      "bur": 5918,
      "häuf": 5919,
      "##mals": 5920,
      "##lier": 5921,
      "##schritt": 5922,
      "##ensive": 5923,
      "keiner": 5924,
      "Indian": 5925,
      "##erman": 5926,
      "older": 5927,
      "distrib": 5928,
      "excited": 5929,
      "Second": 5930,
      "luck": 5931,
      "morgen": 5932,
      "report": 5933,
      "führte": 5934,
      "gewalt": 5935,
      "beings": 5936,
      "Herr": 5937,
      "organization": 5938,
      "families": 5939,
      "Ergebnisse": 5940,
      "gesamten": 5941,
      "sodass": 5942,
      "oxy": 5943,
      "tie": 5944,
      "Verantwort": 5945,
      "price": 5946,
      "code": 5947,
      "points": 5948,
      "sky": 5949,
      "critical": 5950,
      "kaum": 5951,
      "##uk": 5952,
      "##uern": 5953,
      "##bit": 5954,
      "##mand": 5955,
      "##falt": 5956,
      "##iced": 5957,
      "##icians": 5958,
      "amp": 5959,
      "gewinnen": 5960,
      "solchen": 5961,
      "decision": 5962,
      "Americans": 5963,
      "versuche": 5964,
      "crisis": 5965,
      "series": 5966,
      "successful": 5967,
      "mental": 5968,
      "trotzdem": 5969,
      "Pak": 5970,
      "card": 5971,
      "selt": 5972,
      "winz": 5973,
      "throw": 5974,
      "Frieden": 5975,
      "traf": 5976,
      "symbol": 5977,
      "Ressourcen": 5978,
      "45": 5979,
      "aktiv": 5980,
      "lag": 5981,
      "mention": 5982,
      "zahl": 5983,
      "##upp": 5984,
      "##blich": 5985,
      "##pers": 5986,
      "##altet": 5987,
      "##uments": 5988,
      "##ierende": 5989,
      "upon": 5990,
      "cook": 5991,
      "Comput": 5992,
      "reading": 5993,
      "Kur": 5994,
      "kil": 5995,
      "##iately": 5996,
      "##machen": 5997,
      "heutzutage": 5998,
      "befinden": 5999,
      "income": 6000,
      "##holen": 6001,
      "Entscheidung": 6002,
      "Kollegen": 6003,
      "Abend": 6004,
      "kre": 6005,
      "lines": 6006,
      "tree": 6007,
      "yeah": 6008,
      "inse": 6009,
      "##rochen": 6010,
      "##ids": 6011,
      "##ckte": 6012,
      "prison": 6013,
      "Chance": 6014,
      "interessante": 6015,
      "##licherweise": 6016,
      "retten": 6017,
      "Wahrscheinlich": 6018,
      "Betr": 6019,
      "college": 6020,
      "electricity": 6021,
      "bacteria": 6022,
      "Disk": 6023,
      "Funktion": 6024,
      "Wol": 6025,
      "##enk": 6026,
      "##ingungen": 6027,
      "##edia": 6028,
      "whe": 6029,
      "##vented": 6030,
      "Which": 6031,
      "profit": 6032,
      "coun": 6033,
      "bestimmte": 6034,
      "Gefäng": 6035,
      "conversation": 6036,
      "perspective": 6037,
      "Hände": 6038,
      "nenne": 6039,
      "##la": 6040,
      "##lebr": 6041,
      "##etic": 6042,
      "erschein": 6043,
      "gekommen": 6044,
      "dog": 6045,
      "somehow": 6046,
      "zeigte": 6047,
      "##isms": 6048,
      "geschehen": 6049,
      "Monat": 6050,
      "pieces": 6051,
      "##wendung": 6052,
      "written": 6053,
      "Regierungen": 6054,
      "Bus": 6055,
      "Miss": 6056,
      "sele": 6057,
      "##ulf": 6058,
      "##ured": 6059,
      "##astrop": 6060,
      "board": 6061,
      "healthy": 6062,
      "provide": 6063,
      "patterns": 6064,
      "Kampf": 6065,
      "Kons": 6066,
      "Nä": 6067,
      "hop": 6068,
      "##ober": 6069,
      "##grupp": 6070,
      "##dom": 6071,
      "##reiten": 6072,
      "##ago": 6073,
      "##olly": 6074,
      "globalen": 6075,
      "runter": 6076,
      "##ferenz": 6077,
      "Ru": 6078,
      "##rän": 6079,
      "##ko": 6080,
      "##ügen": 6081,
      "##ingu": 6082,
      "erg": 6083,
      "School": 6084,
      "Geheim": 6085,
      "##änden": 6086,
      "Jahres": 6087,
      "kept": 6088,
      "rights": 6089,
      "##werke": 6090,
      "content": 6091,
      "Gespr": 6092,
      "##utzung": 6093,
      "smaller": 6094,
      "automat": 6095,
      "Ball": 6096,
      "##kommt": 6097,
      "town": 6098,
      "unmöglich": 6099,
      "erz": 6100,
      "##steht": 6101,
      "stars": 6102,
      "Landes": 6103,
      "verbinden": 6104,
      "Phil": 6105,
      "seconds": 6106,
      "physics": 6107,
      "increasing": 6108,
      "einzelnen": 6109,
      "Profess": 6110,
      "Hü": 6111,
      "Tal": 6112,
      "##gy": 6113,
      "##genie": 6114,
      "aufre": 6115,
      "aufgrund": 6116,
      "vorh": 6117,
      "##ulture": 6118,
      "anywhere": 6119,
      "biology": 6120,
      "treatment": 6121,
      "erhö": 6122,
      "Linie": 6123,
      "untersuchen": 6124,
      "Methode": 6125,
      "gefragt": 6126,
      "Pf": 6127,
      "letzt": 6128,
      "##rt": 6129,
      "neun": 6130,
      "umzu": 6131,
      "actual": 6132,
      "##örder": 6133,
      "Heim": 6134,
      "version": 6135,
      "Systeme": 6136,
      "robots": 6137,
      "neurons": 6138,
      "Maschinen": 6139,
      "Partner": 6140,
      "service": 6141,
      "recognize": 6142,
      "Museum": 6143,
      "rund": 6144,
      "wann": 6145,
      "##äte": 6146,
      "##kon": 6147,
      "##isation": 6148,
      "##reme": 6149,
      "##uls": 6150,
      "express": 6151,
      "Ern": 6152,
      "##strument": 6153,
      "##fortunately": 6154,
      "schlechte": 6155,
      "military": 6156,
      "passen": 6157,
      "weight": 6158,
      "shap": 6159,
      "##ualität": 6160,
      "himself": 6161,
      "riesige": 6162,
      "architecture": 6163,
      "calcul": 6164,
      "Glauben": 6165,
      "##ios": 6166,
      "##hang": 6167,
      "##wenden": 6168,
      "Industrie": 6169,
      "Imag": 6170,
      "Traum": 6171,
      "entdecken": 6172,
      "molec": 6173,
      "Dre": 6174,
      "Sinne": 6175,
      "Times": 6176,
      "fil": 6177,
      "nut": 6178,
      "##ius": 6179,
      "##rect": 6180,
      "alte": 6181,
      "doctors": 6182,
      "##hlt": 6183,
      "Arzt": 6184,
      "saving": 6185,
      "veh": 6186,
      "anymore": 6187,
      "##ilet": 6188,
      "explor": 6189,
      "descri": 6190,
      "please": 6191,
      "straight": 6192,
      "hilft": 6193,
      "Bewusstsein": 6194,
      "danke": 6195,
      "dunk": 6196,
      "hell": 6197,
      "messen": 6198,
      "range": 6199,
      "wes": 6200,
      "angef": 6201,
      "##ierter": 6202,
      "lebt": 6203,
      "Einer": 6204,
      "Außer": 6205,
      "reduz": 6206,
      "Krankenhaus": 6207,
      "MIT": 6208,
      "3D": 6209,
      "jungen": 6210,
      "##pret": 6211,
      "##throp": 6212,
      "##ightly": 6213,
      "machines": 6214,
      "clim": 6215,
      "##redit": 6216,
      "Regel": 6217,
      "##lands": 6218,
      "effort": 6219,
      "##itude": 6220,
      "intelle": 6221,
      "großartige": 6222,
      "Erwachsen": 6223,
      "##hyth": 6224,
      "Himmel": 6225,
      "Ordnung": 6226,
      "Mond": 6227,
      "Wachstum": 6228,
      "catch": 6229,
      "rand": 6230,
      "##rate": 6231,
      "##aup": 6232,
      "zufä": 6233,
      "wirk": 6234,
      "abge": 6235,
      "##ahmen": 6236,
      "desp": 6237,
      "##assung": 6238,
      "herausfinden": 6239,
      "sowohl": 6240,
      "verstanden": 6241,
      "Pal": 6242,
      "Sold": 6243,
      "bab": 6244,
      "bodies": 6245,
      "nerv": 6246,
      "wund": 6247,
      "##iegen": 6248,
      "##iments": 6249,
      "##osh": 6250,
      "genes": 6251,
      "Another": 6252,
      "Auswirkungen": 6253,
      "employ": 6254,
      "##ektive": 6255,
      "##ähig": 6256,
      "großartig": 6257,
      "determ": 6258,
      "Damit": 6259,
      "Einkommen": 6260,
      "Pass": 6261,
      "win": 6262,
      "##aben": 6263,
      "##cient": 6264,
      "##ara": 6265,
      "##aria": 6266,
      "erfahren": 6267,
      "leisten": 6268,
      "constant": 6269,
      "entschieden": 6270,
      "##erences": 6271,
      "Sep": 6272,
      "contrib": 6273,
      "##board": 6274,
      "##ständig": 6275,
      "performance": 6276,
      "Bienen": 6277,
      "läuft": 6278,
      "sam": 6279,
      "##ya": 6280,
      "##glicht": 6281,
      "##ding": 6282,
      "##eless": 6283,
      "web": 6284,
      "shot": 6285,
      "erzählte": 6286,
      "standard": 6287,
      "effective": 6288,
      "amerikanischen": 6289,
      "Ame": 6290,
      "Zivil": 6291,
      "##gu": 6292,
      "##buch": 6293,
      "##zimmer": 6294,
      "##pol": 6295,
      "##erem": 6296,
      "##emand": 6297,
      "##schuld": 6298,
      "gestellt": 6299,
      "legs": 6300,
      "loved": 6301,
      "driving": 6302,
      "glass": 6303,
      "decisions": 6304,
      "police": 6305,
      "greater": 6306,
      "Formen": 6307,
      "##amente": 6308,
      "earlier": 6309,
      "hörte": 6310,
      "painting": 6311,
      "Architektur": 6312,
      "Freiheit": 6313,
      "hält": 6314,
      "##hem": 6315,
      "##vard": 6316,
      "##wers": 6317,
      "##asche": 6318,
      "inn": 6319,
      "einander": 6320,
      "##uted": 6321,
      "becoming": 6322,
      "##ildet": 6323,
      "zweiten": 6324,
      "kommun": 6325,
      "emb": 6326,
      "Brust": 6327,
      "Geräu": 6328,
      "öffentlichen": 6329,
      "##stoffe": 6330,
      "rechts": 6331,
      "König": 6332,
      "Flugzeug": 6333,
      "##reitet": 6334,
      "Beziehungen": 6335,
      "Höhe": 6336,
      "dadurch": 6337,
      "Eig": 6338,
      "Life": 6339,
      "Nor": 6340,
      "Nummer": 6341,
      "harm": 6342,
      "##yle": 6343,
      "##iat": 6344,
      "##mäß": 6345,
      "##iling": 6346,
      "verfol": 6347,
      "spect": 6348,
      "Ingenie": 6349,
      "##ained": 6350,
      "skills": 6351,
      "##ieties": 6352,
      "normalerweise": 6353,
      "Fotos": 6354,
      "statist": 6355,
      "ermöglicht": 6356,
      "policy": 6357,
      "elektr": 6358,
      "Ah": 6359,
      "Rand": 6360,
      "Bezug": 6361,
      "willing": 6362,
      "Fluss": 6363,
      "##gleichen": 6364,
      "clearly": 6365,
      "listening": 6366,
      "square": 6367,
      "##äuser": 6368,
      "sammeln": 6369,
      "##schiede": 6370,
      "famous": 6371,
      "September": 6372,
      "fit": 6373,
      "fallen": 6374,
      "weren": 6375,
      "throughout": 6376,
      "Entdeck": 6377,
      "expensive": 6378,
      "Geburt": 6379,
      "Harvard": 6380,
      "übrigens": 6381,
      "600": 6382,
      "Ak": 6383,
      "Ere": 6384,
      "Fakt": 6385,
      "Gal": 6386,
      "Your": 6387,
      "##gl": 6388,
      "##same": 6389,
      "##atest": 6390,
      "##aking": 6391,
      "##acity": 6392,
      "##üss": 6393,
      "geschaffen": 6394,
      "production": 6395,
      "einzig": 6396,
      "familiar": 6397,
      "Wohn": 6398,
      "Haben": 6399,
      "Kör": 6400,
      "Komp": 6401,
      "Wik": 6402,
      "jump": 6403,
      "##cl": 6404,
      "##zunehmen": 6405,
      "##ino": 6406,
      "##iesen": 6407,
      "##itens": 6408,
      "diejenigen": 6409,
      "bestehen": 6410,
      "store": 6411,
      "Einstein": 6412,
      "##riere": 6413,
      "magic": 6414,
      "##ameras": 6415,
      "außerhalb": 6416,
      "Ärzte": 6417,
      "älter": 6418,
      "significant": 6419,
      "Noch": 6420,
      "Norm": 6421,
      "##atives": 6422,
      "##key": 6423,
      "worry": 6424,
      "comfort": 6425,
      "exh": 6426,
      "therefore": 6427,
      "drink": 6428,
      "befindet": 6429,
      "solutions": 6430,
      "Darwin": 6431,
      "costs": 6432,
      "höch": 6433,
      "entdeckt": 6434,
      "current": 6435,
      "Imagine": 6436,
      "math": 6437,
      "rise": 6438,
      "##onie": 6439,
      "vern": 6440,
      "##onest": 6441,
      "gesp": 6442,
      "gradu": 6443,
      "direction": 6444,
      "electr": 6445,
      "##mitteln": 6446,
      "##rifft": 6447,
      "intelligent": 6448,
      "pan": 6449,
      "##lose": 6450,
      "##stä": 6451,
      "##anter": 6452,
      "##reibt": 6453,
      "##reche": 6454,
      "forth": 6455,
      "##ournal": 6456,
      "Neu": 6457,
      "##attle": 6458,
      "freedom": 6459,
      "berüh": 6460,
      "Bühne": 6461,
      "strugg": 6462,
      "levels": 6463,
      "Quad": 6464,
      "##ütter": 6465,
      "genetic": 6466,
      "random": 6467,
      "Mont": 6468,
      "Paul": 6469,
      "cold": 6470,
      "ille": 6471,
      "north": 6472,
      "##leb": 6473,
      "website": 6474,
      "antw": 6475,
      "reich": 6476,
      "##ceed": 6477,
      "Inse": 6478,
      "##uchten": 6479,
      "herunter": 6480,
      "Verfü": 6481,
      "handelt": 6482,
      "Glob": 6483,
      "##arbeiter": 6484,
      "controll": 6485,
      "waiting": 6486,
      "Western": 6487,
      "antwor": 6488,
      "Jungen": 6489,
      "taten": 6490,
      "##lant": 6491,
      "##omm": 6492,
      "schützen": 6493,
      "##mend": 6494,
      "divers": 6495,
      "Gründe": 6496,
      "Muslim": 6497,
      "practice": 6498,
      "fantastic": 6499,
      "unterstützen": 6500,
      "intelligence": 6501,
      "Bang": 6502,
      "Liste": 6503,
      "Nerven": 6504,
      "Sil": 6505,
      "crow": 6506,
      "##itat": 6507,
      "##ährt": 6508,
      "bisher": 6509,
      "##gesetzt": 6510,
      "welcher": 6511,
      "posit": 6512,
      "Liebl": 6513,
      "fascin": 6514,
      "argument": 6515,
      "desto": 6516,
      "temper": 6517,
      "dangerous": 6518,
      "Big": 6519,
      "Mid": 6520,
      "ran": 6521,
      "sus": 6522,
      "##aries": 6523,
      "##reib": 6524,
      "##aust": 6525,
      "##änomen": 6526,
      "surger": 6527,
      "final": 6528,
      "respect": 6529,
      "Organisation": 6530,
      "floor": 6531,
      "Ach": 6532,
      "Great": 6533,
      "Grad": 6534,
      "##orben": 6535,
      "##eth": 6536,
      "##auchen": 6537,
      "warten": 6538,
      "legal": 6539,
      "##selben": 6540,
      "einzigen": 6541,
      "greatest": 6542,
      "beauty": 6543,
      "environmental": 6544,
      "Unser": 6545,
      "Farbe": 6546,
      "describ": 6547,
      "Beginn": 6548,
      "Einzel": 6549,
      "Telefon": 6550,
      "Pakistan": 6551,
      "Gold": 6552,
      "Mir": 6553,
      "Name": 6554,
      "foss": 6555,
      "##jähr": 6556,
      "##rew": 6557,
      "##unächst": 6558,
      "stren": 6559,
      "##iding": 6560,
      "spielt": 6561,
      "##platz": 6562,
      "selben": 6563,
      "walked": 6564,
      "betrachtet": 6565,
      "Nahrung": 6566,
      "celebr": 6567,
      "citizens": 6568,
      "Lö": 6569,
      "Punkte": 6570,
      "Sam": 6571,
      "Wald": 6572,
      "mächt": 6573,
      "##ael": 6574,
      "##gra": 6575,
      "##önen": 6576,
      "inj": 6577,
      "##erecht": 6578,
      "weap": 6579,
      "##imately": 6580,
      "##gegen": 6581,
      "##ürf": 6582,
      "Schn": 6583,
      "dritte": 6584,
      "Manchmal": 6585,
      "decade": 6586,
      "spirit": 6587,
      "Californ": 6588,
      "Drogen": 6589,
      "bra": 6590,
      "##uff": 6591,
      "##inct": 6592,
      "##rot": 6593,
      "##schte": 6594,
      "George": 6595,
      "Ange": 6596,
      "Manche": 6597,
      "Klimaw": 6598,
      "institutions": 6599,
      "Dan": 6600,
      "German": 6601,
      "Sl": 6602,
      "Two": 6603,
      "lad": 6604,
      "##iffen": 6605,
      "##ining": 6606,
      "##iell": 6607,
      "##stern": 6608,
      "Stunde": 6609,
      "entweder": 6610,
      "resist": 6611,
      "Individ": 6612,
      "##teilung": 6613,
      "minds": 6614,
      "ebenso": 6615,
      "fühlte": 6616,
      "##wärts": 6617,
      "agr": 6618,
      "cru": 6619,
      "rede": 6620,
      "##oint": 6621,
      "##eh": 6622,
      "##ancy": 6623,
      "wealth": 6624,
      "##eller": 6625,
      "Schle": 6626,
      "grü": 6627,
      "##gründ": 6628,
      "lief": 6629,
      "strange": 6630,
      "values": 6631,
      "condition": 6632,
      "engineering": 6633,
      "Institution": 6634,
      "Hirn": 6635,
      "immediately": 6636,
      "Kamera": 6637,
      "Sä": 6638,
      "Ton": 6639,
      "##bü": 6640,
      "##zi": 6641,
      "##arf": 6642,
      "invented": 6643,
      "##repr": 6644,
      "##ctures": 6645,
      "shark": 6646,
      "herstellen": 6647,
      "##stellungen": 6648,
      "Zeitpunkt": 6649,
      "##phone": 6650,
      "secret": 6651,
      "dollar": 6652,
      "wundersch": 6653,
      "meeting": 6654,
      "Eth": 6655,
      "Tisch": 6656,
      "hinge": 6657,
      "match": 6658,
      "##iant": 6659,
      "##nungen": 6660,
      "##seit": 6661,
      "##schirm": 6662,
      "früh": 6663,
      "Lehr": 6664,
      "plastic": 6665,
      "Chic": 6666,
      "Designer": 6667,
      "teaching": 6668,
      "Interesse": 6669,
      "types": 6670,
      "laws": 6671,
      "Jul": 6672,
      "Lernen": 6673,
      "Mach": 6674,
      "ahead": 6675,
      "##öse": 6676,
      "dasselbe": 6677,
      "rep": 6678,
      "Think": 6679,
      "Anderson": 6680,
      "##ulieren": 6681,
      "getroffen": 6682,
      "Gehirns": 6683,
      "Erfahrungen": 6684,
      "Lösungen": 6685,
      "Medikamente": 6686,
      "##inosaur": 6687,
      "Behandlung": 6688,
      "End": 6689,
      "##sweise": 6690,
      "##cies": 6691,
      "##ießen": 6692,
      "Insel": 6693,
      "Schrift": 6694,
      "guter": 6695,
      "Englisch": 6696,
      "various": 6697,
      "improv": 6698,
      "grundlegen": 6699,
      "Ereign": 6700,
      "Finger": 6701,
      "Mut": 6702,
      "Sal": 6703,
      "Zw": 6704,
      "jud": 6705,
      "km": 6706,
      "rule": 6707,
      "##ser": 6708,
      "##ieß": 6709,
      "unl": 6710,
      "erleben": 6711,
      "Text": 6712,
      "Artikel": 6713,
      "##ostet": 6714,
      "decades": 6715,
      "Komplex": 6716,
      "services": 6717,
      "encour": 6718,
      "disappear": 6719,
      "75": 6720,
      "Ident": 6721,
      "James": 6722,
      "##iated": 6723,
      "##zer": 6724,
      "##amt": 6725,
      "##ilien": 6726,
      "auft": 6727,
      "gutes": 6728,
      "Amaz": 6729,
      "##tragen": 6730,
      "##gaben": 6731,
      "connection": 6732,
      "Jahrhunderts": 6733,
      "erwarten": 6734,
      "Francisco": 6735,
      "Fen": 6736,
      "Kol": 6737,
      "Wow": 6738,
      "aware": 6739,
      "div": 6740,
      "Wege": 6741,
      "mehrere": 6742,
      "wenige": 6743,
      "humanity": 6744,
      "remind": 6745,
      "##ervation": 6746,
      "career": 6747,
      "Berg": 6748,
      "governments": 6749,
      "radio": 6750,
      "heutigen": 6751,
      "neighborhood": 6752,
      "California": 6753,
      "Post": 6754,
      "##dings": 6755,
      "##passen": 6756,
      "##rees": 6757,
      "##hrungs": 6758,
      "##ellschaften": 6759,
      "##frieden": 6760,
      "industrial": 6761,
      "##trag": 6762,
      "##uzz": 6763,
      "##aurant": 6764,
      "mobile": 6765,
      "Aud": 6766,
      "Bis": 6767,
      "Cong": 6768,
      "Mär": 6769,
      "hart": 6770,
      "##kam": 6771,
      "##sem": 6772,
      "relev": 6773,
      "deb": 6774,
      "Verständnis": 6775,
      "##hnte": 6776,
      "decide": 6777,
      "apply": 6778,
      "behaup": 6779,
      "bedeuten": 6780,
      "Polize": 6781,
      "erinnere": 6782,
      "following": 6783,
      "fuel": 6784,
      "method": 6785,
      "Good": 6786,
      "Kir": 6787,
      "Mö": 6788,
      "jene": 6789,
      "Öff": 6790,
      "##anced": 6791,
      "##essel": 6792,
      "##hrten": 6793,
      "##ammt": 6794,
      "although": 6795,
      "liber": 6796,
      "##barkeit": 6797,
      "useful": 6798,
      "instance": 6799,
      "popular": 6800,
      "electron": 6801,
      "concl": 6802,
      "Veränderungen": 6803,
      "Finanz": 6804,
      "Jedes": 6805,
      "babies": 6806,
      "Mat": 6807,
      "las": 6808,
      "##ibe": 6809,
      "##zul": 6810,
      "infrastru": 6811,
      "forget": 6812,
      "##gency": 6813,
      "uses": 6814,
      "##gefunden": 6815,
      "spricht": 6816,
      "nahmen": 6817,
      "terrible": 6818,
      "occur": 6819,
      "remarkable": 6820,
      "22": 6821,
      "Junge": 6822,
      "Mart": 6823,
      "Pre": 6824,
      "Wesen": 6825,
      "sad": 6826,
      "##atic": 6827,
      "##stück": 6828,
      "##urm": 6829,
      "schicken": 6830,
      "ord": 6831,
      "durchschnitt": 6832,
      "blog": 6833,
      "Teilen": 6834,
      "choices": 6835,
      "##sprüng": 6836,
      "pressure": 6837,
      "23": 6838,
      "Sub": 6839,
      "honest": 6840,
      "##hi": 6841,
      "##con": 6842,
      "uner": 6843,
      "leid": 6844,
      "org": 6845,
      "Gewe": 6846,
      "telev": 6847,
      "Zeiten": 6848,
      "trade": 6849,
      "##ssystem": 6850,
      "##ypoth": 6851,
      "expand": 6852,
      "possibly": 6853,
      "install": 6854,
      "assoc": 6855,
      "effects": 6856,
      "verkaufen": 6857,
      "ebenfalls": 6858,
      "flying": 6859,
      "enormous": 6860,
      "##reprene": 6861,
      "Chicago": 6862,
      "GP": 6863,
      "Position": 6864,
      "bud": 6865,
      "wün": 6866,
      "##ikt": 6867,
      "##iete": 6868,
      "##seh": 6869,
      "##anning": 6870,
      "##angel": 6871,
      "selten": 6872,
      "surve": 6873,
      "##ritten": 6874,
      "Charles": 6875,
      "Nigeria": 6876,
      "ehrlich": 6877,
      "Gefängnis": 6878,
      "base": 6879,
      "gift": 6880,
      "wählen": 6881,
      "##urb": 6882,
      "Schr": 6883,
      "Erkennt": 6884,
      "##ients": 6885,
      "capacity": 6886,
      "Worten": 6887,
      "Nahrungs": 6888,
      "purpose": 6889,
      "Kurz": 6890,
      "fällt": 6891,
      "ske": 6892,
      "senten": 6893,
      "##zus": 6894,
      "##masch": 6895,
      "##standen": 6896,
      "intens": 6897,
      "male": 6898,
      "voraus": 6899,
      "Vergleich": 6900,
      "From": 6901,
      "##laufen": 6902,
      "Sport": 6903,
      "commit": 6904,
      "##folge": 6905,
      "Schlüssel": 6906,
      "politics": 6907,
      "##fälle": 6908,
      "raise": 6909,
      "Risiko": 6910,
      "Austral": 6911,
      "NASA": 6912,
      "Verantwortung": 6913,
      "Hum": 6914,
      "cust": 6915,
      "laut": 6916,
      "##osen": 6917,
      "##aign": 6918,
      "##brechen": 6919,
      "##orien": 6920,
      "##arter": 6921,
      "states": 6922,
      "##essed": 6923,
      "Erstens": 6924,
      "##frikan": 6925,
      "anyway": 6926,
      "poet": 6927,
      "Kreis": 6928,
      "berü": 6929,
      "challenges": 6930,
      "erfunden": 6931,
      "##aptop": 6932,
      "Schönheit": 6933,
      "Bib": 6934,
      "Gang": 6935,
      "Mos": 6936,
      "Tor": 6937,
      "hous": 6938,
      "race": 6939,
      "##sichtig": 6940,
      "hair": 6941,
      "isol": 6942,
      "##annien": 6943,
      "commer": 6944,
      "Infrastru": 6945,
      "Projekte": 6946,
      "einfachen": 6947,
      "2008": 6948,
      "understood": 6949,
      "Werte": 6950,
      "jemandem": 6951,
      "societies": 6952,
      "Bedürf": 6953,
      "einges": 6954,
      "verrückt": 6955,
      "gedacht": 6956,
      "##alley": 6957,
      "financial": 6958,
      "Eigenschaften": 6959,
      "dür": 6960,
      "dauer": 6961,
      "fat": 6962,
      "tiss": 6963,
      "üb": 6964,
      "##fassen": 6965,
      "##RI": 6966,
      "beant": 6967,
      "##ilder": 6968,
      "##ierenden": 6969,
      "Auge": 6970,
      "accept": 6971,
      "geschah": 6972,
      "##ippe": 6973,
      "außergewöhn": 6974,
      "cultural": 6975,
      "unterschiedliche": 6976,
      "Con": 6977,
      "Hund": 6978,
      "Mill": 6979,
      "chr": 6980,
      "summer": 6981,
      "vict": 6982,
      "##omant": 6983,
      "unver": 6984,
      "shared": 6985,
      "Arme": 6986,
      "nachhalt": 6987,
      "print": 6988,
      "paid": 6989,
      "Steve": 6990,
      "helped": 6991,
      "slide": 6992,
      "slightly": 6993,
      "artist": 6994,
      "diseases": 6995,
      "##ufact": 6996,
      "speaking": 6997,
      "Statist": 6998,
      "target": 6999,
      "##imente": 7000,
      "Band": 7001,
      "Dis": 7002,
      "Zelle": 7003,
      "##stütz": 7004,
      "##iles": 7005,
      "##geführt": 7006,
      "##bewer": 7007,
      "##ffic": 7008,
      "imm": 7009,
      "mitt": 7010,
      "atmosph": 7011,
      "Schwar": 7012,
      "supply": 7013,
      "##stände": 7014,
      "Strateg": 7015,
      "Kapital": 7016,
      "behandeln": 7017,
      "female": 7018,
      "Ahnung": 7019,
      "Dienst": 7020,
      "Journal": 7021,
      "wider": 7022,
      "##ologen": 7023,
      "##ads": 7024,
      "worst": 7025,
      "triff": 7026,
      "trouble": 7027,
      "komme": 7028,
      "surr": 7029,
      "##räge": 7030,
      "hole": 7031,
      "existiert": 7032,
      "unglaubliche": 7033,
      "destro": 7034,
      "hyd": 7035,
      "Männern": 7036,
      "Zustand": 7037,
      "\"-": 7038,
      "Feld": 7039,
      "Get": 7040,
      "Hom": 7041,
      "Jan": 7042,
      "Last": 7043,
      "south": 7044,
      "##ih": 7045,
      "unique": 7046,
      "gebe": 7047,
      "Arg": 7048,
      "prevent": 7049,
      "Freunden": 7050,
      "central": 7051,
      "Produkte": 7052,
      "Meeres": 7053,
      "original": 7054,
      "konzentrieren": 7055,
      "wunderv": 7056,
      "television": 7057,
      "Alex": 7058,
      "Kein": 7059,
      "Tieren": 7060,
      "drop": 7061,
      "gather": 7062,
      "ru": 7063,
      "##dig": 7064,
      "##was": 7065,
      "invent": 7066,
      "##isierte": 7067,
      "##unsch": 7068,
      "sobald": 7069,
      "##ims": 7070,
      "überleben": 7071,
      "##brit": 7072,
      "Many": 7073,
      "##maß": 7074,
      "verbringen": 7075,
      "Städten": 7076,
      "below": 7077,
      "Michael": 7078,
      "directly": 7079,
      "efficient": 7080,
      "colleagues": 7081,
      "temperature": 7082,
      "Infrastruktur": 7083,
      "Cam": 7084,
      "dank": 7085,
      "od": 7086,
      "##ners": 7087,
      "##org": 7088,
      "##ico": 7089,
      "##anne": 7090,
      "vorbei": 7091,
      "mostly": 7092,
      "offic": 7093,
      "Freude": 7094,
      "öffnen": 7095,
      "Fortschritt": 7096,
      "survive": 7097,
      "Center": 7098,
      "iPh": 7099,
      "Intelligen": 7100,
      "Nähe": 7101,
      "Professor": 7102,
      "Etw": 7103,
      "hom": 7104,
      "tens": 7105,
      "##gäng": 7106,
      "##deut": 7107,
      "unabhäng": 7108,
      "Erzähl": 7109,
      "shoot": 7110,
      "whose": 7111,
      "brand": 7112,
      "Ansatz": 7113,
      "Region": 7114,
      "Antworten": 7115,
      "wunderbar": 7116,
      "Biologie": 7117,
      "religion": 7118,
      "Materialien": 7119,
      "Street": 7120,
      "lernte": 7121,
      "Ext": 7122,
      "Mitt": 7123,
      "Tom": 7124,
      "Wass": 7125,
      "lust": 7126,
      "loss": 7127,
      "##hner": 7128,
      "##wise": 7129,
      "##stadt": 7130,
      "##irur": 7131,
      "Westen": 7132,
      "Schutz": 7133,
      "Erst": 7134,
      "effekt": 7135,
      "eigenes": 7136,
      "tremend": 7137,
      "programs": 7138,
      "frühen": 7139,
      "synth": 7140,
      "Verfügung": 7141,
      "agricult": 7142,
      "Gh": 7143,
      "Pil": 7144,
      "Wett": 7145,
      "echte": 7146,
      "fangen": 7147,
      "##oßen": 7148,
      "hall": 7149,
      "unf": 7150,
      "verme": 7151,
      "myster": 7152,
      "##etzte": 7153,
      "YouT": 7154,
      "Plast": 7155,
      "metap": 7156,
      "published": 7157,
      "Version": 7158,
      "Gesundheits": 7159,
      "relationships": 7160,
      "2010": 7161,
      "negative": 7162,
      "##minister": 7163,
      "##britannien": 7164,
      "Bon": 7165,
      "Ev": 7166,
      "Massen": 7167,
      "Pop": 7168,
      "double": 7169,
      "##ec": 7170,
      "forces": 7171,
      "gegangen": 7172,
      "frustr": 7173,
      "spreche": 7174,
      "Tex": 7175,
      "Spitze": 7176,
      "##üsse": 7177,
      "194": 7178,
      "boys": 7179,
      "creativity": 7180,
      "Virus": 7181,
      "Physik": 7182,
      "angefangen": 7183,
      "Colle": 7184,
      "bat": 7185,
      "##etten": 7186,
      "stim": 7187,
      "##geht": 7188,
      "neh": 7189,
      "##aker": 7190,
      "Eins": 7191,
      "##sprechen": 7192,
      "philosoph": 7193,
      "meters": 7194,
      "digit": 7195,
      "##cules": 7196,
      "causes": 7197,
      "Sommer": 7198,
      "Again": 7199,
      "Religion": 7200,
      "oxygen": 7201,
      "infrastructure": 7202,
      "trifft": 7203,
      "YouTube": 7204,
      "Bru": 7205,
      "Kore": 7206,
      "Pa": 7207,
      "Wunder": 7208,
      "aid": 7209,
      "kulture": 7210,
      "vul": 7211,
      "##abe": 7212,
      "##ench": 7213,
      "##iest": 7214,
      "##itär": 7215,
      "algorith": 7216,
      "manip": 7217,
      "frame": 7218,
      "##ikas": 7219,
      "##ends": 7220,
      "##izes": 7221,
      "##frage": 7222,
      "differences": 7223,
      "Nehmen": 7224,
      "zeich": 7225,
      "##itionen": 7226,
      "funny": 7227,
      "globale": 7228,
      "organizations": 7229,
      "Schlaf": 7230,
      "Verbindungen": 7231,
      "##drücken": 7232,
      "ursprüng": 7233,
      "motor": 7234,
      "journal": 7235,
      "sustainable": 7236,
      "krie": 7237,
      "sal": 7238,
      "sick": 7239,
      "##nam": 7240,
      "noticed": 7241,
      "##ochter": 7242,
      "Gelegenheit": 7243,
      "entreprene": 7244,
      "##gress": 7245,
      "related": 7246,
      "Überleben": 7247,
      "answers": 7248,
      "explore": 7249,
      "Atlant": 7250,
      "Interess": 7251,
      "profound": 7252,
      "##haltung": 7253,
      "improve": 7254,
      "institution": 7255,
      "Iraq": 7256,
      "Sauerstoff": 7257,
      "Bäume": 7258,
      "Amazon": 7259,
      "Bein": 7260,
      "Dort": 7261,
      "Int": 7262,
      "Waffen": 7263,
      "eating": 7264,
      "fro": 7265,
      "mix": 7266,
      "ök": 7267,
      "erne": 7268,
      "heat": 7269,
      "Schiff": 7270,
      "chair": 7271,
      "##endes": 7272,
      "seines": 7273,
      "entstehen": 7274,
      "active": 7275,
      "begonnen": 7276,
      "Unterstütz": 7277,
      "transpar": 7278,
      "hört": 7279,
      "biological": 7280,
      "kontrollieren": 7281,
      "evolved": 7282,
      "dage": 7283,
      "sou": 7284,
      "##aven": 7285,
      "##kn": 7286,
      "##MS": 7287,
      "##esis": 7288,
      "##eting": 7289,
      "##icles": 7290,
      "erzeugt": 7291,
      "chines": 7292,
      "herzustellen": 7293,
      "##ört": 7294,
      "##wohn": 7295,
      "geschafft": 7296,
      "Herzen": 7297,
      "produced": 7298,
      "Klasse": 7299,
      "Atmosph": 7300,
      "Schluss": 7301,
      "##illiant": 7302,
      "riesigen": 7303,
      "closer": 7304,
      "atmosphere": 7305,
      "bio": 7306,
      "tax": 7307,
      "##ester": 7308,
      "##orgung": 7309,
      "##ichtbar": 7310,
      "##scher": 7311,
      "manufact": 7312,
      "##blemen": 7313,
      "##aced": 7314,
      "##fühle": 7315,
      "##azine": 7316,
      "größere": 7317,
      "markets": 7318,
      "##ographic": 7319,
      "Nichts": 7320,
      "Farben": 7321,
      "Leidenschaft": 7322,
      "##hause": 7323,
      "##zil": 7324,
      "Beh": 7325,
      "genutzt": 7326,
      "Unterschiede": 7327,
      "##oston": 7328,
      "##istenz": 7329,
      "played": 7330,
      "##ampag": 7331,
      "stopped": 7332,
      "##fraid": 7333,
      "Knochen": 7334,
      "erwäh": 7335,
      "profession": 7336,
      "twice": 7337,
      "beeinflusst": 7338,
      "häufig": 7339,
      "surgery": 7340,
      "Micro": 7341,
      "Tochter": 7342,
      "afraid": 7343,
      "##publ": 7344,
      "unge": 7345,
      "aufgenommen": 7346,
      "##ennung": 7347,
      "##weil": 7348,
      "Star": 7349,
      "spaces": 7350,
      "Altern": 7351,
      "Frü": 7352,
      "ließ": 7353,
      "Ausdruck": 7354,
      "prepar": 7355,
      "brauchte": 7356,
      "Thanks": 7357,
      "größeren": 7358,
      "##ashion": 7359,
      "streets": 7360,
      "networks": 7361,
      "campaign": 7362,
      "Suche": 7363,
      "akzept": 7364,
      "Kreativität": 7365,
      "Fenster": 7366,
      "Boston": 7367,
      "Lang": 7368,
      "bought": 7369,
      "bomb": 7370,
      "hus": 7371,
      "wire": 7372,
      "##len": 7373,
      "##schau": 7374,
      "Stan": 7375,
      "workers": 7376,
      "schlimm": 7377,
      "Großbritannien": 7378,
      "Werkzeuge": 7379,
      "communicate": 7380,
      "erstaunlich": 7381,
      "Titel": 7382,
      "Entwicklungsl": 7383,
      "Vielfalt": 7384,
      "mountain": 7385,
      "verfüg": 7386,
      "Over": 7387,
      "kor": 7388,
      "kämpfen": 7389,
      "##glie": 7390,
      "##vit": 7391,
      "##ergie": 7392,
      "reagieren": 7393,
      "##ogel": 7394,
      "shock": 7395,
      "##stellte": 7396,
      "compon": 7397,
      "Geschwindigkeit": 7398,
      "gotten": 7399,
      "displ": 7400,
      "Phänomen": 7401,
      "wichtigsten": 7402,
      "##ception": 7403,
      "corner": 7404,
      "Opfer": 7405,
      "Sun": 7406,
      "lack": 7407,
      "änd": 7408,
      "##uing": 7409,
      "##erc": 7410,
      "##entwick": 7411,
      "##ichts": 7412,
      "sogen": 7413,
      "##ulations": 7414,
      "##mente": 7415,
      "##wohner": 7416,
      "indep": 7417,
      "parad": 7418,
      "highly": 7419,
      "politischen": 7420,
      "assum": 7421,
      "Durchschnitt": 7422,
      "fühlt": 7423,
      "Jobs": 7424,
      "ermöglichen": 7425,
      "applic": 7426,
      "surround": 7427,
      "King": 7428,
      "Rücken": 7429,
      "##bin": 7430,
      "##hilfe": 7431,
      "##pack": 7432,
      "bein": 7433,
      "##berg": 7434,
      "##gener": 7435,
      "absch": 7436,
      "##istry": 7437,
      "Instead": 7438,
      "consequen": 7439,
      "##ubble": 7440,
      "speech": 7441,
      "gewiss": 7442,
      "smell": 7443,
      "basis": 7444,
      "##iertel": 7445,
      "feels": 7446,
      "Angeles": 7447,
      "missing": 7448,
      "##seinander": 7449,
      "##mmern": 7450,
      "responsibility": 7451,
      "Zentrum": 7452,
      "##sätzlich": 7453,
      "custom": 7454,
      "Ganz": 7455,
      "Hig": 7456,
      "Lau": 7457,
      "Wid": 7458,
      "dying": 7459,
      "##over": 7460,
      "##yc": 7461,
      "##stag": 7462,
      "##agon": 7463,
      "verantwort": 7464,
      "##imeter": 7465,
      "##ibiot": 7466,
      "notwend": 7467,
      "amb": 7468,
      "##ktionen": 7469,
      "weiterhin": 7470,
      "experiments": 7471,
      "Schlag": 7472,
      "seemed": 7473,
      "oppos": 7474,
      "easily": 7475,
      "achieve": 7476,
      "Kilometer": 7477,
      "Pan": 7478,
      "dance": 7479,
      "vast": 7480,
      "##aling": 7481,
      "seas": 7482,
      "##ationale": 7483,
      "knowing": 7484,
      "##aining": 7485,
      "entspr": 7486,
      "entlang": 7487,
      "Anst": 7488,
      "endlich": 7489,
      "##affe": 7490,
      "##geschichte": 7491,
      "Karten": 7492,
      "Denk": 7493,
      "psycholog": 7494,
      "Führungs": 7495,
      "molecules": 7496,
      "beeinflussen": 7497,
      "Loch": 7498,
      "Train": 7499,
      "dorth": 7500,
      "gol": 7501,
      "äuß": 7502,
      "##dy": 7503,
      "##ida": 7504,
      "##wechsel": 7505,
      "##lieben": 7506,
      "##größ": 7507,
      "fühle": 7508,
      "Blog": 7509,
      "##holt": 7510,
      "##zeichnen": 7511,
      "Geschäfts": 7512,
      "surprising": 7513,
      "degrees": 7514,
      "Brazil": 7515,
      "Holz": 7516,
      "Kä": 7517,
      "Osten": 7518,
      "Persp": 7519,
      "Rä": 7520,
      "[\"": 7521,
      "koll": 7522,
      "kenne": 7523,
      "nöt": 7524,
      "ut": 7525,
      "##han": 7526,
      "##zif": 7527,
      "##utt": 7528,
      "##urf": 7529,
      "##istisch": 7530,
      "##artig": 7531,
      "demand": 7532,
      "Gefühle": 7533,
      "party": 7534,
      "einfacher": 7535,
      "differently": 7536,
      "planets": 7537,
      "Karriere": 7538,
      "Paris": 7539,
      "Typen": 7540,
      "produziert": 7541,
      "Soldaten": 7542,
      "Wikip": 7543,
      "Kann": 7544,
      "More": 7545,
      "Materie": 7546,
      "Norden": 7547,
      "Szen": 7548,
      "Wal": 7549,
      "buch": 7550,
      "gilt": 7551,
      "langen": 7552,
      "rough": 7553,
      "##light": 7554,
      "##kle": 7555,
      "##iner": 7556,
      "##ored": 7557,
      "##leun": 7558,
      "seien": 7559,
      "Best": 7560,
      "coff": 7561,
      "Gesellschaften": 7562,
      "##ript": 7563,
      "2007": 7564,
      "creates": 7565,
      "##ähle": 7566,
      "helping": 7567,
      "photo": 7568,
      "Gemeinde": 7569,
      "##ognitive": 7570,
      "Todes": 7571,
      "Keine": 7572,
      "birds": 7573,
      "daughter": 7574,
      "Temperatur": 7575,
      "experiences": 7576,
      "##gypt": 7577,
      "iPhone": 7578,
      "dorthin": 7579,
      "Green": 7580,
      "Wunsch": 7581,
      "hielt": 7582,
      "krit": 7583,
      "##izen": 7584,
      "##onym": 7585,
      "##edy": 7586,
      "##eden": 7587,
      "##lder": 7588,
      "##onds": 7589,
      "##akten": 7590,
      "##bruch": 7591,
      "Abs": 7592,
      "designers": 7593,
      "Klassen": 7594,
      "magnet": 7595,
      "reduce": 7596,
      "Präsident": 7597,
      "seltsam": 7598,
      "Ameisen": 7599,
      "Middle": 7600,
      "none": 7601,
      "nütz": 7602,
      "##entle": 7603,
      "##abt": 7604,
      "sharing": 7605,
      "Einsatz": 7606,
      "engage": 7607,
      "##ließt": 7608,
      "switch": 7609,
      "##mutlich": 7610,
      "window": 7611,
      "Neuronen": 7612,
      "erlauben": 7613,
      "members": 7614,
      "rapid": 7615,
      "##ollywood": 7616,
      "diversity": 7617,
      "Did": 7618,
      "Lat": 7619,
      "flex": 7620,
      "##ete": 7621,
      "##bank": 7622,
      "##xis": 7623,
      "##üben": 7624,
      "initi": 7625,
      "##used": 7626,
      "abhäng": 7627,
      "schaut": 7628,
      "##heben": 7629,
      "plat": 7630,
      "##ungspro": 7631,
      "flight": 7632,
      "handeln": 7633,
      "element": 7634,
      "##ratic": 7635,
      "##setzung": 7636,
      "complexity": 7637,
      "stellten": 7638,
      "satell": 7639,
      "Actually": 7640,
      "College": 7641,
      "nehme": 7642,
      "His": 7643,
      "Kop": 7644,
      "Take": 7645,
      "fashion": 7646,
      "hang": 7647,
      "##uum": 7648,
      "##kop": 7649,
      "tom": 7650,
      "##ctive": 7651,
      "trick": 7652,
      "genome": 7653,
      "steigen": 7654,
      "Beruf": 7655,
      "scientist": 7656,
      "##load": 7657,
      "focused": 7658,
      "Werkzeug": 7659,
      "communication": 7660,
      "überras": 7661,
      "Botschaft": 7662,
      "Cr": 7663,
      "fle": 7664,
      "##gin": 7665,
      "##mmer": 7666,
      "##ros": 7667,
      "##schutz": 7668,
      "##industrie": 7669,
      "erstellen": 7670,
      "##odes": 7671,
      "Inform": 7672,
      "Begriff": 7673,
      "entsteht": 7674,
      "##gebaut": 7675,
      "##ekten": 7676,
      "Konferenz": 7677,
      "Glas": 7678,
      "bringing": 7679,
      "politische": 7680,
      "Online": 7681,
      "broken": 7682,
      "spending": 7683,
      "Result": 7684,
      "analy": 7685,
      "nearly": 7686,
      "Sterne": 7687,
      "behandelt": 7688,
      "Niemand": 7689,
      "consciousness": 7690,
      "Diskuss": 7691,
      "Wikipedia": 7692,
      "Bitte": 7693,
      "gaben": 7694,
      "kostet": 7695,
      "##aught": 7696,
      "##beweg": 7697,
      "heav": 7698,
      "teen": 7699,
      "gene": 7700,
      "##gramme": 7701,
      "##ording": 7702,
      "email": 7703,
      "Fest": 7704,
      "##mögen": 7705,
      "##umente": 7706,
      "Zusammenhang": 7707,
      "Global": 7708,
      "dagegen": 7709,
      "ändert": 7710,
      "Ziele": 7711,
      "afrikan": 7712,
      "batter": 7713,
      "##uert": 7714,
      "##icted": 7715,
      "Republ": 7716,
      "##izität": 7717,
      "darf": 7718,
      "agree": 7719,
      "gewisse": 7720,
      "ganzes": 7721,
      "visit": 7722,
      "Kohlen": 7723,
      "perfekt": 7724,
      "conference": 7725,
      "edge": 7726,
      "##markt": 7727,
      "Wahrscheinlichkeit": 7728,
      "commercial": 7729,
      "Bu": 7730,
      "Gar": 7731,
      "Null": 7732,
      "Qualität": 7733,
      "Tanz": 7734,
      "Zur": 7735,
      "künst": 7736,
      "kürz": 7737,
      "pig": 7738,
      "san": 7739,
      "##gere": 7740,
      "##hes": 7741,
      "##wahr": 7742,
      "##omas": 7743,
      "##entlicht": 7744,
      "##rupt": 7745,
      "entschied": 7746,
      "studying": 7747,
      "Deut": 7748,
      "lights": 7749,
      "vari": 7750,
      "GPS": 7751,
      "Laden": 7752,
      "Pot": 7753,
      "Satz": 7754,
      "##hö": 7755,
      "veränder": 7756,
      "Sozial": 7757,
      "sport": 7758,
      "legen": 7759,
      "Sche": 7760,
      "addition": 7761,
      "Untersuch": 7762,
      "##formen": 7763,
      "Boot": 7764,
      "##quenz": 7765,
      "hearing": 7766,
      "verkauft": 7767,
      "Bedingungen": 7768,
      "devices": 7769,
      "erhält": 7770,
      "Korallen": 7771,
      "Sekunde": 7772,
      "Kommunikation": 7773,
      "erforschen": 7774,
      "Müll": 7775,
      "Insekten": 7776,
      "Air": 7777,
      "BG": 7778,
      "Brie": 7779,
      "Jede": 7780,
      "Rem": 7781,
      "Sen": 7782,
      "jüng": 7783,
      "ter": 7784,
      "##lu": 7785,
      "##sters": 7786,
      "##eler": 7787,
      "##ieso": 7788,
      "presen": 7789,
      "betrifft": 7790,
      "boat": 7791,
      "extreme": 7792,
      "##stronom": 7793,
      "breast": 7794,
      "opportunities": 7795,
      "Komplexität": 7796,
      "tremendous": 7797,
      "vulner": 7798,
      "Atmosphäre": 7799,
      "27": 7800,
      "Lab": 7801,
      "Trad": 7802,
      "ep": 7803,
      "eure": 7804,
      "##chem": 7805,
      "##inde": 7806,
      "##stic": 7807,
      "bees": 7808,
      "weird": 7809,
      "##andid": 7810,
      "##weite": 7811,
      "Proz": 7812,
      "tele": 7813,
      "saß": 7814,
      "Stein": 7815,
      "inspired": 7816,
      "definition": 7817,
      "Science": 7818,
      "symmet": 7819,
      "religious": 7820,
      "Aufgaben": 7821,
      "Klima": 7822,
      "join": 7823,
      "Fernsehen": 7824,
      "begeist": 7825,
      "veröffentlicht": 7826,
      "landscape": 7827,
      "strength": 7828,
      "Intelligenz": 7829,
      "Abst": 7830,
      "Fach": 7831,
      "Kunden": 7832,
      "mill": 7833,
      "##water": 7834,
      "therap": 7835,
      "##arte": 7836,
      "ancient": 7837,
      "forever": 7838,
      "Beste": 7839,
      "##halte": 7840,
      "alleine": 7841,
      "bloß": 7842,
      "interpret": 7843,
      "weiteres": 7844,
      "davor": 7845,
      "Teilchen": 7846,
      "ecosystem": 7847,
      "250": 7848,
      "investieren": 7849,
      "Kontakt": 7850,
      "sexual": 7851,
      "mission": 7852,
      "Organisationen": 7853,
      "Ökosystem": 7854,
      "Babys": 7855,
      "verursacht": 7856,
      "Unterstützung": 7857,
      "Vogel": 7858,
      "##pted": 7859,
      "##pfl": 7860,
      "##stab": 7861,
      "##seits": 7862,
      "schm": 7863,
      "plus": 7864,
      "gros": 7865,
      "##frika": 7866,
      "held": 7867,
      "bitten": 7868,
      "bedeut": 7869,
      "condu": 7870,
      "fully": 7871,
      "##bedingt": 7872,
      "Adam": 7873,
      "benötigen": 7874,
      "##alifornien": 7875,
      "fairly": 7876,
      "letztes": 7877,
      "Klimawandel": 7878,
      "Ac": 7879,
      "Nutzen": 7880,
      "Pri": 7881,
      "Tun": 7882,
      "UN": 7883,
      "core": 7884,
      "yellow": 7885,
      "##orgt": 7886,
      "habt": 7887,
      "überzeugt": 7888,
      "brilliant": 7889,
      "##iften": 7890,
      "gross": 7891,
      "cooper": 7892,
      "disk": 7893,
      "adapt": 7894,
      "gewonnen": 7895,
      "beschreiben": 7896,
      "imagination": 7897,
      "entwickelten": 7898,
      "physic": 7899,
      "##klärung": 7900,
      "CE": 7901,
      "Fün": 7902,
      "Sein": 7903,
      "sü": 7904,
      "##mission": 7905,
      "##val": 7906,
      "##isierten": 7907,
      "trag": 7908,
      "##endent": 7909,
      "passed": 7910,
      "klingt": 7911,
      "Universums": 7912,
      "Zeichen": 7913,
      "identity": 7914,
      "sowie": 7915,
      "##ivalent": 7916,
      "kommunizieren": 7917,
      "bread": 7918,
      "zent": 7919,
      "##toc": 7920,
      "##pre": 7921,
      "##igur": 7922,
      "spot": 7923,
      "##icket": 7924,
      "Spiele": 7925,
      "resol": 7926,
      "2005": 7927,
      "verbreitet": 7928,
      "effiz": 7929,
      "##wirken": 7930,
      "##zeichen": 7931,
      "Zusammenarbeit": 7932,
      "Institute": 7933,
      "Volk": 7934,
      "Plastik": 7935,
      "Drei": 7936,
      "Wandel": 7937,
      "##bie": 7938,
      "##bet": 7939,
      "##na": 7940,
      "##reci": 7941,
      "##urop": 7942,
      "hau": 7943,
      "schafft": 7944,
      "##pping": 7945,
      "leider": 7946,
      "shel": 7947,
      "##urcht": 7948,
      "stem": 7949,
      "prior": 7950,
      "Einfach": 7951,
      "Spielen": 7952,
      "##samm": 7953,
      "Geschle": 7954,
      "adop": 7955,
      "Ausbildung": 7956,
      "expon": 7957,
      "artists": 7958,
      "distance": 7959,
      "Zweitens": 7960,
      "Schwier": 7961,
      "Robert": 7962,
      "European": 7963,
      "pleas": 7964,
      "British": 7965,
      "dimensional": 7966,
      "alternative": 7967,
      "lucky": 7968,
      "coffee": 7969,
      "Fabr": 7970,
      "Pers": 7971,
      "mort": 7972,
      "nutz": 7973,
      "##sum": 7974,
      "##ded": 7975,
      "##fangen": 7976,
      "##usive": 7977,
      "##lymp": 7978,
      "##istische": 7979,
      "aspect": 7980,
      "umgehen": 7981,
      "desert": 7982,
      "##etzten": 7983,
      "##ugier": 7984,
      "note": 7985,
      "Gesetze": 7986,
      "##rian": 7987,
      "Landwirtschaft": 7988,
      "creatures": 7989,
      "neuer": 7990,
      "Forscher": 7991,
      "avoid": 7992,
      "degree": 7993,
      "Jugend": 7994,
      "Effekt": 7995,
      "phenomenon": 7996,
      "Lieblings": 7997,
      "opposite": 7998,
      "Masse": 7999,
      "Ple": 8000,
      "Rob": 8001,
      "Tra": 8002,
      "mouth": 8003,
      "summ": 8004,
      "##fallen": 8005,
      "unbedingt": 8006,
      "spiel": 8007,
      "überzeugen": 8008,
      "Schmerz": 8009,
      "hero": 8010,
      "Sehr": 8011,
      "turning": 8012,
      "possibility": 8013,
      "##appen": 8014,
      "##losen": 8015,
      "dahin": 8016,
      "raised": 8017,
      "amerikanische": 8018,
      "farmers": 8019,
      "failure": 8020,
      "Fällen": 8021,
      "sorry": 8022,
      "Hintergrund": 8023,
      "##krieg": 8024,
      "despite": 8025,
      "Identität": 8026,
      "Higgs": 8027,
      "buchstä": 8028,
      "Bal": 8029,
      "Hal": 8030,
      "Link": 8031,
      "Wü": 8032,
      "tail": 8033,
      "##hung": 8034,
      "##piel": 8035,
      "##anst": 8036,
      "##unte": 8037,
      "##amb": 8038,
      "rechten": 8039,
      "vermutlich": 8040,
      "Stär": 8041,
      "##ogr": 8042,
      "##ungssystem": 8043,
      "disor": 8044,
      "herausgefunden": 8045,
      "dreams": 8046,
      "##ography": 8047,
      "signal": 8048,
      "Modelle": 8049,
      "lautet": 8050,
      "Graf": 8051,
      "influ": 8052,
      "Golf": 8053,
      "describe": 8054,
      "wunderschön": 8055,
      "Liter": 8056,
      "Mem": 8057,
      "Po": 8058,
      "Would": 8059,
      "gun": 8060,
      "gentle": 8061,
      "host": 8062,
      "##ias": 8063,
      "##far": 8064,
      "##20": 8065,
      "##orb": 8066,
      "tolle": 8067,
      "##eline": 8068,
      "Thomas": 8069,
      "##antage": 8070,
      "##artige": 8071,
      "ship": 8072,
      "##ätsel": 8073,
      "2009": 8074,
      "##others": 8075,
      "Handy": 8076,
      "particles": 8077,
      "##schlagen": 8078,
      "accident": 8079,
      "easier": 8080,
      "Herausforderungen": 8081,
      "##krebs": 8082,
      "Satell": 8083,
      "Sind": 8084,
      "giant": 8085,
      "hon": 8086,
      "rational": 8087,
      "##oom": 8088,
      "##aos": 8089,
      "##cel": 8090,
      "##stud": 8091,
      "tox": 8092,
      "repe": 8093,
      "##gebracht": 8094,
      "erfü": 8095,
      "##hest": 8096,
      "Stoff": 8097,
      "Stift": 8098,
      "exerc": 8099,
      "notion": 8100,
      "##izz": 8101,
      "durchgeführt": 8102,
      "##frist": 8103,
      "wiederum": 8104,
      "correct": 8105,
      "##ständlich": 8106,
      "names": 8107,
      "Objekte": 8108,
      "vollkommen": 8109,
      "außerdem": 8110,
      "structures": 8111,
      "Großteil": 8112,
      "events": 8113,
      "figured": 8114,
      "##zwischen": 8115,
      "Basis": 8116,
      "moments": 8117,
      "dieselbe": 8118,
      "Hack": 8119,
      "Rede": 8120,
      "epidem": 8121,
      "##det": 8122,
      "##king": 8123,
      "##ügel": 8124,
      "##chnen": 8125,
      "##asion": 8126,
      "##rest": 8127,
      "##aming": 8128,
      "alter": 8129,
      "##üren": 8130,
      "übertragen": 8131,
      "Problemen": 8132,
      "##obel": 8133,
      "French": 8134,
      "##fragen": 8135,
      "partners": 8136,
      "##werte": 8137,
      "##führer": 8138,
      "coast": 8139,
      "Zuerst": 8140,
      "importantly": 8141,
      "##hört": 8142,
      "##ification": 8143,
      "definit": 8144,
      "unterschiedlichen": 8145,
      "##impan": 8146,
      "beschäftigt": 8147,
      "##zweif": 8148,
      "zufällig": 8149,
      "Fund": 8150,
      "Mod": 8151,
      "Sorgen": 8152,
      "Vö": 8153,
      "bound": 8154,
      "shr": 8155,
      "##ston": 8156,
      "##destens": 8157,
      "geführt": 8158,
      "##ulen": 8159,
      "Statt": 8160,
      "herr": 8161,
      "Child": 8162,
      "Gründen": 8163,
      "Mechan": 8164,
      "besitzen": 8165,
      "drehen": 8166,
      "Drittel": 8167,
      "fragten": 8168,
      "entirely": 8169,
      "verdienen": 8170,
      "##oppelt": 8171,
      "##swert": 8172,
      "##elesc": 8173,
      "Elektr": 8174,
      "suffering": 8175,
      "benefits": 8176,
      "bezahlen": 8177,
      "deutlich": 8178,
      "65": 8179,
      "Have": 8180,
      "Mobil": 8181,
      "Open": 8182,
      "Valley": 8183,
      "dur": 8184,
      "fell": 8185,
      "fold": 8186,
      "sorgen": 8187,
      "sitzt": 8188,
      "##volle": 8189,
      "##üp": 8190,
      "##station": 8191,
      "##arr": 8192,
      "##etwas": 8193,
      "ance": 8194,
      "##kehren": 8195,
      "##anner": 8196,
      "aufw": 8197,
      "Schimpan": 8198,
      "usw": 8199,
      "Vertrauen": 8200,
      "stecken": 8201,
      "##steller": 8202,
      "selber": 8203,
      "sicherlich": 8204,
      "Geräte": 8205,
      "gestalten": 8206,
      "Gewicht": 8207,
      "origin": 8208,
      "erklärt": 8209,
      "Janu": 8210,
      "metaphor": 8211,
      "Affen": 8212,
      "Falls": 8213,
      "Mad": 8214,
      "cry": 8215,
      "jung": 8216,
      "mamm": 8217,
      "puzz": 8218,
      "rob": 8219,
      "##fisch": 8220,
      "##fähigkeit": 8221,
      "##aters": 8222,
      "wirst": 8223,
      "master": 8224,
      "Beine": 8225,
      "click": 8226,
      "Auft": 8227,
      "##änn": 8228,
      "Bildschirm": 8229,
      "However": 8230,
      "regular": 8231,
      "Asia": 8232,
      "##worfen": 8233,
      "Charakter": 8234,
      "Brot": 8235,
      "Treib": 8236,
      "benötigt": 8237,
      "##abetes": 8238,
      "Sometimes": 8239,
      "Institutionen": 8240,
      "Polizei": 8241,
      "haupts": 8242,
      "buchstäblich": 8243,
      "800": 8244,
      "Jer": 8245,
      "##oge": 8246,
      "##iop": 8247,
      "##fält": 8248,
      "##vity": 8249,
      "zuk": 8250,
      "abst": 8251,
      "##osis": 8252,
      "##ruf": 8253,
      "brings": 8254,
      "##ifying": 8255,
      "wood": 8256,
      "poem": 8257,
      "calls": 8258,
      "contact": 8259,
      "##istence": 8260,
      "appreci": 8261,
      "elements": 8262,
      "remote": 8263,
      "erstes": 8264,
      "Obama": 8265,
      "Milliarde": 8266,
      "eingesch": 8267,
      "erwartet": 8268,
      "Mexico": 8269,
      "necessarily": 8270,
      "Bio": 8271,
      "II": 8272,
      "La": 8273,
      "billions": 8274,
      "##ses": 8275,
      "##ötet": 8276,
      "##inhalb": 8277,
      "##verb": 8278,
      "##usagen": 8279,
      "concent": 8280,
      "##ending": 8281,
      "Very": 8282,
      "iron": 8283,
      "gelangen": 8284,
      "sozusagen": 8285,
      "charge": 8286,
      "öffentlich": 8287,
      "schöne": 8288,
      "repräsent": 8289,
      "invis": 8290,
      "responsible": 8291,
      "virtual": 8292,
      "require": 8293,
      "Videos": 8294,
      "natürliche": 8295,
      "relevant": 8296,
      "\"]": 8297,
      "Fel": 8298,
      "Log": 8299,
      "dou": 8300,
      "sinn": 8301,
      "##iche": 8302,
      "##ota": 8303,
      "forg": 8304,
      "compl": 8305,
      "attem": 8306,
      "##artment": 8307,
      "##print": 8308,
      "grass": 8309,
      "##hnten": 8310,
      "wohin": 8311,
      "##ährung": 8312,
      "quote": 8313,
      "anderem": 8314,
      "Kontext": 8315,
      "##gewicht": 8316,
      "accur": 8317,
      "Once": 8318,
      "brother": 8319,
      "General": 8320,
      "laugh": 8321,
      "holding": 8322,
      "wissenschaftliche": 8323,
      "kümmern": 8324,
      "competition": 8325,
      "Körpers": 8326,
      "illegal": 8327,
      "dürfen": 8328,
      "tissue": 8329,
      "700": 8330,
      "Tau": 8331,
      "Vision": 8332,
      "wis": 8333,
      "##oh": 8334,
      "##gas": 8335,
      "##gte": 8336,
      "##tes": 8337,
      "##zelle": 8338,
      "##di": 8339,
      "abgesch": 8340,
      "##osc": 8341,
      "werfen": 8342,
      "##angs": 8343,
      "bridge": 8344,
      "##fügen": 8345,
      "background": 8346,
      "versus": 8347,
      "hinweg": 8348,
      "gewöhn": 8349,
      "bestimmen": 8350,
      "studied": 8351,
      "zurückzu": 8352,
      "mindestens": 8353,
      "##hafte": 8354,
      "dreht": 8355,
      "##itzer": 8356,
      "hohen": 8357,
      "photos": 8358,
      "Code": 8359,
      "leadership": 8360,
      "Irak": 8361,
      "modernen": 8362,
      "kompliz": 8363,
      "wheel": 8364,
      "counter": 8365,
      "zukünft": 8366,
      "Dimens": 8367,
      "Fische": 8368,
      "Tur": 8369,
      "hung": 8370,
      "läch": 8371,
      "mouse": 8372,
      "pounds": 8373,
      "##house": 8374,
      "##mutter": 8375,
      "beteil": 8376,
      "derzeit": 8377,
      "##cell": 8378,
      "Weiß": 8379,
      "ausgest": 8380,
      "Schuld": 8381,
      "constru": 8382,
      "##angt": 8383,
      "Gest": 8384,
      "Verk": 8385,
      "##ördern": 8386,
      "sculpt": 8387,
      "Kindheit": 8388,
      "##ords": 8389,
      "ideal": 8390,
      "previous": 8391,
      "helps": 8392,
      "grade": 8393,
      "opened": 8394,
      "Kontin": 8395,
      "anti": 8396,
      "Experten": 8397,
      "Emot": 8398,
      "Themen": 8399,
      "leading": 8400,
      "Militär": 8401,
      "Strukturen": 8402,
      "Ghana": 8403,
      "Akt": 8404,
      "Ass": 8405,
      "Emp": 8406,
      "Egypt": 8407,
      "Haw": 8408,
      "Kalifornien": 8409,
      "Lad": 8410,
      "Wichtig": 8411,
      "bird": 8412,
      "hängt": 8413,
      "##ration": 8414,
      "##zut": 8415,
      "##30": 8416,
      "seed": 8417,
      "##agers": 8418,
      "##rale": 8419,
      "##ulated": 8420,
      "Schne": 8421,
      "daß": 8422,
      "entwerfen": 8423,
      "##ifically": 8424,
      "steckt": 8425,
      "proud": 8426,
      "##stellungs": 8427,
      "cla": 8428,
      "clock": 8429,
      "##führung": 8430,
      "indic": 8431,
      "halb": 8432,
      "##ocken": 8433,
      "verwir": 8434,
      "##haben": 8435,
      "Lebensmittel": 8436,
      "Island": 8437,
      "corpor": 8438,
      "falsche": 8439,
      "erinnert": 8440,
      "oceans": 8441,
      "grandm": 8442,
      "professional": 8443,
      "##odell": 8444,
      "necessary": 8445,
      "foreign": 8446,
      "balance": 8447,
      "Leistung": 8448,
      "täglich": 8449,
      "intellect": 8450,
      "weapons": 8451,
      "husband": 8452,
      "36": 8453,
      "Dad": 8454,
      "Rö": 8455,
      "pet": 8456,
      "tausende": 8457,
      "wächst": 8458,
      "##right": 8459,
      "##wahl": 8460,
      "##chern": 8461,
      "wechsel": 8462,
      "sector": 8463,
      "stolz": 8464,
      "##idents": 8465,
      "##ulous": 8466,
      "##ibilities": 8467,
      "##stellten": 8468,
      "lieber": 8469,
      "letter": 8470,
      "Brenn": 8471,
      "Metap": 8472,
      "cheap": 8473,
      "öffentliche": 8474,
      "trained": 8475,
      "Staat": 8476,
      "##richtung": 8477,
      "religi": 8478,
      "Motor": 8479,
      "document": 8480,
      ".'": 8481,
      "26": 8482,
      "Dinosaur": 8483,
      "Hil": 8484,
      "Mission": 8485,
      "Off": 8486,
      "##afen": 8487,
      "##vin": 8488,
      "##äbe": 8489,
      "##dete": 8490,
      "##idden": 8491,
      "allgemein": 8492,
      "##istischen": 8493,
      "Inn": 8494,
      "Gefahr": 8495,
      "Verkehr": 8496,
      "##chnologie": 8497,
      "interagieren": 8498,
      "1950": 8499,
      "shouldn": 8500,
      "believed": 8501,
      "##forschung": 8502,
      "clever": 8503,
      "matters": 8504,
      "Bildern": 8505,
      "##öffnet": 8506,
      "ultimately": 8507,
      "faith": 8508,
      "verwandeln": 8509,
      "separate": 8510,
      "Filme": 8511,
      "irgendwann": 8512,
      "Öffentlich": 8513,
      "32": 8514,
      "Jack": 8515,
      "Lar": 8516,
      "Ox": 8517,
      "Rahmen": 8518,
      "kit": 8519,
      "ober": 8520,
      "romant": 8521,
      "weder": 8522,
      "##PA": 8523,
      "##atively": 8524,
      "##ller": 8525,
      "##ingly": 8526,
      "auseinander": 8527,
      "##otograf": 8528,
      "unfortunately": 8529,
      "erle": 8530,
      "##zeiten": 8531,
      "truck": 8532,
      "getötet": 8533,
      "Vert": 8534,
      "stuck": 8535,
      "Spieler": 8536,
      "discovery": 8537,
      "##ometers": 8538,
      "failed": 8539,
      "narrat": 8540,
      "adults": 8541,
      "verfolgen": 8542,
      "destroy": 8543,
      "Ecke": 8544,
      "Jungs": 8545,
      "Syn": 8546,
      "ban": 8547,
      "caught": 8548,
      "mor": 8549,
      "Änder": 8550,
      "##lück": 8551,
      "einsetzen": 8552,
      "##schm": 8553,
      "##pper": 8554,
      "##iens": 8555,
      "ausl": 8556,
      "Verhält": 8557,
      "testen": 8558,
      "noise": 8559,
      "offer": 8560,
      "glaubt": 8561,
      "##ighten": 8562,
      "childhood": 8563,
      "Autor": 8564,
      "weiteren": 8565,
      "##esentlichen": 8566,
      "colors": 8567,
      "succeed": 8568,
      "##ancing": 8569,
      "leads": 8570,
      "Apple": 8571,
      "convin": 8572,
      "Erinnerung": 8573,
      "platform": 8574,
      "überrascht": 8575,
      "Bett": 8576,
      "DH": 8577,
      "Eing": 8578,
      "Maus": 8579,
      "Nobel": 8580,
      "river": 8581,
      "wand": 8582,
      "##bi": 8583,
      "##cked": 8584,
      "##ckten": 8585,
      "gebrau": 8586,
      "##kton": 8587,
      "fragt": 8588,
      "Inst": 8589,
      "hate": 8590,
      "##igend": 8591,
      "##asten": 8592,
      "##itete": 8593,
      "Außen": 8594,
      "halte": 8595,
      "Haiti": 8596,
      "Zeich": 8597,
      "##ausenden": 8598,
      "investment": 8599,
      "broad": 8600,
      "##soft": 8601,
      "##tended": 8602,
      "majority": 8603,
      "töten": 8604,
      "Verlust": 8605,
      "concerned": 8606,
      "Microsoft": 8607,
      "Kohlenstoff": 8608,
      "Ham": 8609,
      "Hör": 8610,
      "Roll": 8611,
      "joy": 8612,
      "pun": 8613,
      "sau": 8614,
      "är": 8615,
      "##atoren": 8616,
      "##etter": 8617,
      "weiss": 8618,
      "assem": 8619,
      "prototyp": 8620,
      "##iban": 8621,
      "Spekt": 8622,
      "cloud": 8623,
      "Deb": 8624,
      "##bling": 8625,
      "creation": 8626,
      "##schlä": 8627,
      "auth": 8628,
      "Stress": 8629,
      "Interaktion": 8630,
      "typical": 8631,
      "Gegenteil": 8632,
      "Forschungs": 8633,
      "##yram": 8634,
      "university": 8635,
      "benefit": 8636,
      "Fleisch": 8637,
      "krank": 8638,
      "insects": 8639,
      "Konsum": 8640,
      "Außerdem": 8641,
      "Quadrat": 8642,
      "hauptsächlich": 8643,
      "Nan": 8644,
      "Nutz": 8645,
      "lies": 8646,
      "##vere": 8647,
      "##jekten": 8648,
      "##enkt": 8649,
      "##reif": 8650,
      "##leitet": 8651,
      "mitten": 8652,
      "sac": 8653,
      "##achtung": 8654,
      "##spe": 8655,
      "##issions": 8656,
      "basiert": 8657,
      "pair": 8658,
      "letztendlich": 8659,
      "vollständig": 8660,
      "Kohle": 8661,
      "leaving": 8662,
      "Wahrneh": 8663,
      "scheinen": 8664,
      "Bauern": 8665,
      "Standard": 8666,
      "fighting": 8667,
      "schwarz": 8668,
      "gefährlich": 8669,
      "Galaxien": 8670,
      "Konflikt": 8671,
      "Heimat": 8672,
      "budget": 8673,
      "##esterday": 8674,
      "ancest": 8675,
      "Bur": 8676,
      "Kal": 8677,
      "Lern": 8678,
      "Lied": 8679,
      "Nation": 8680,
      "Sy": 8681,
      "Sing": 8682,
      "Samm": 8683,
      "ton": 8684,
      "tue": 8685,
      "tour": 8686,
      "##ae": 8687,
      "##cast": 8688,
      "##laden": 8689,
      "##ößen": 8690,
      "##nden": 8691,
      "##emen": 8692,
      "##olph": 8693,
      "erweit": 8694,
      "##raut": 8695,
      "##apse": 8696,
      "##ipe": 8697,
      "Orig": 8698,
      "newsp": 8699,
      "glam": 8700,
      "Frem": 8701,
      "besseren": 8702,
      "wichtigste": 8703,
      "interessieren": 8704,
      "acceler": 8705,
      "Sprachen": 8706,
      "möglicherweise": 8707,
      "verbracht": 8708,
      "##ächtnis": 8709,
      "deeply": 8710,
      "slowly": 8711,
      "Aktivität": 8712,
      "sequence": 8713,
      "exhib": 8714,
      "Wettbewer": 8715,
      "##ampagne": 8716,
      "influence": 8717,
      "Ehe": 8718,
      "Law": 8719,
      "Mount": 8720,
      "band": 8721,
      "tit": 8722,
      "##afrika": 8723,
      "##gesehen": 8724,
      "##öpf": 8725,
      "unk": 8726,
      "##idung": 8727,
      "schließen": 8728,
      "exch": 8729,
      "##inkel": 8730,
      "moon": 8731,
      "moves": 8732,
      "Algorith": 8733,
      "##schaff": 8734,
      "Heil": 8735,
      "##aled": 8736,
      "traffic": 8737,
      "Manh": 8738,
      "Meilen": 8739,
      "finished": 8740,
      "gegenseit": 8741,
      "nächstes": 8742,
      "lesson": 8743,
      "crash": 8744,
      "protein": 8745,
      "emotions": 8746,
      "horr": 8747,
      "Solar": 8748,
      "Perspektive": 8749,
      "begeistert": 8750,
      "Bom": 8751,
      "king": 8752,
      "sister": 8753,
      "##eper": 8754,
      "##möglichkeit": 8755,
      "##xim": 8756,
      "##igm": 8757,
      "reve": 8758,
      "##oles": 8759,
      "err": 8760,
      "##rast": 8761,
      "Arch": 8762,
      "Span": 8763,
      "compared": 8764,
      "##riage": 8765,
      "Genom": 8766,
      "Diagr": 8767,
      "Elektron": 8768,
      "finanzie": 8769,
      "begeg": 8770,
      "vorhanden": 8771,
      "constantly": 8772,
      "Stanford": 8773,
      "Bob": 8774,
      "Bush": 8775,
      "Opt": 8776,
      "Sah": 8777,
      "fab": 8778,
      "finger": 8779,
      "##bu": 8780,
      "##nissen": 8781,
      "##oret": 8782,
      "##enty": 8783,
      "seat": 8784,
      "angew": 8785,
      "reprodu": 8786,
      "managed": 8787,
      "##wegs": 8788,
      "frage": 8789,
      "aussch": 8790,
      "deinen": 8791,
      "##griffen": 8792,
      "closed": 8793,
      "gesund": 8794,
      "versuchten": 8795,
      "##prob": 8796,
      "Bras": 8797,
      "Defin": 8798,
      "capable": 8799,
      "Geme": 8800,
      "Show": 8801,
      "##ippen": 8802,
      "garden": 8803,
      "paying": 8804,
      "Verhaltens": 8805,
      "argue": 8806,
      "president": 8807,
      "gehabt": 8808,
      "verhindern": 8809,
      "embra": 8810,
      "eingesetzt": 8811,
      "95": 8812,
      "Aug": 8813,
      "Häuser": 8814,
      "Lauf": 8815,
      "Rock": 8816,
      "Wä": 8817,
      "bone": 8818,
      "cro": 8819,
      "walls": 8820,
      "##gern": 8821,
      "##gment": 8822,
      "##pet": 8823,
      "##itness": 8824,
      "##aue": 8825,
      "ants": 8826,
      "Start": 8827,
      "depression": 8828,
      "Verletz": 8829,
      "##ordin": 8830,
      "##athy": 8831,
      "begins": 8832,
      "factory": 8833,
      "insight": 8834,
      "finanz": 8835,
      "parent": 8836,
      "attach": 8837,
      "paint": 8838,
      "##richtungen": 8839,
      "Folge": 8840,
      "architect": 8841,
      "Kapit": 8842,
      "consumption": 8843,
      "strategy": 8844,
      "fascinating": 8845,
      "described": 8846,
      "Sens": 8847,
      "zunehmen": 8848,
      "##ita": 8849,
      "weib": 8850,
      "##icke": 8851,
      "reward": 8852,
      "phones": 8853,
      "starb": 8854,
      "Flor": 8855,
      "Impf": 8856,
      "organisms": 8857,
      "attract": 8858,
      "normalen": 8859,
      "120": 8860,
      "hohe": 8861,
      "existieren": 8862,
      "collective": 8863,
      "interaction": 8864,
      "surprise": 8865,
      "hyper": 8866,
      "opin": 8867,
      "erzähle": 8868,
      "berühm": 8869,
      "Audience": 8870,
      "Gewebe": 8871,
      "Dinosaurier": 8872,
      "Dunk": 8873,
      "Olymp": 8874,
      "Rot": 8875,
      "Zimmer": 8876,
      "bieten": 8877,
      "faces": 8878,
      "kap": 8879,
      "round": 8880,
      "##ux": 8881,
      "##ength": 8882,
      "##orrow": 8883,
      "##teid": 8884,
      "einsch": 8885,
      "##unken": 8886,
      "##roph": 8887,
      "era": 8888,
      "immun": 8889,
      "manage": 8890,
      "spl": 8891,
      "Ins": 8892,
      "stelle": 8893,
      "otherwise": 8894,
      "##werten": 8895,
      "##spir": 8896,
      "talks": 8897,
      "empt": 8898,
      "wunderbare": 8899,
      "operating": 8900,
      "bemerkt": 8901,
      "mathematics": 8902,
      "Moleküle": 8903,
      "quantum": 8904,
      "praktisch": 8905,
      "Gespräch": 8906,
      "Öffentlichkeit": 8907,
      "28": 8908,
      "Count": 8909,
      "Haufen": 8910,
      "Hotel": 8911,
      "Les": 8912,
      "Rat": 8913,
      "Ske": 8914,
      "Talk": 8915,
      "gäbe": 8916,
      "museum": 8917,
      "##rasch": 8918,
      "##ties": 8919,
      "##person": 8920,
      "##ania": 8921,
      "##lett": 8922,
      "begren": 8923,
      "Three": 8924,
      "stabil": 8925,
      "arch": 8926,
      "teuer": 8927,
      "entworfen": 8928,
      "##ologists": 8929,
      "##udes": 8930,
      "Landschaft": 8931,
      "arbeiteten": 8932,
      "irgendetwas": 8933,
      "coral": 8934,
      "##ipped": 8935,
      "Experimente": 8936,
      "Everybody": 8937,
      "engineers": 8938,
      "advantage": 8939,
      "Schwester": 8940,
      "unterschiedlich": 8941,
      "perfectly": 8942,
      "dauert": 8943,
      "Grenze": 8944,
      "Katastrop": 8945,
      "cycle": 8946,
      "invisible": 8947,
      "Händen": 8948,
      "Ug": 8949,
      "##bahn": 8950,
      "##läss": 8951,
      "##AR": 8952,
      "##isher": 8953,
      "##uries": 8954,
      "##bern": 8955,
      "schönen": 8956,
      "##apers": 8957,
      "Project": 8958,
      "justice": 8959,
      "Verstand": 8960,
      "grown": 8961,
      "unterscheiden": 8962,
      "driven": 8963,
      "roof": 8964,
      "Unternehmer": 8965,
      "##fahrt": 8966,
      "detail": 8967,
      "holen": 8968,
      "Radio": 8969,
      "Erkenntnis": 8970,
      "##maschine": 8971,
      "verantwortlich": 8972,
      "Aust": 8973,
      "Dok": 8974,
      "categ": 8975,
      "kennt": 8976,
      "nannte": 8977,
      "tag": 8978,
      "tough": 8979,
      "##mitt": 8980,
      "##phen": 8981,
      "##ka": 8982,
      "##inc": 8983,
      "##icon": 8984,
      "anges": 8985,
      "reform": 8986,
      "erster": 8987,
      "##ession": 8988,
      "##uliert": 8989,
      "Stimmen": 8990,
      "Innen": 8991,
      "Erleb": 8992,
      "##hlung": 8993,
      "Ans": 8994,
      "wenigen": 8995,
      "benutz": 8996,
      "fourth": 8997,
      "artific": 8998,
      "Minute": 8999,
      "schlimmer": 9000,
      "equal": 9001,
      "followed": 9002,
      "Folgendes": 9003,
      "volunte": 9004,
      "empower": 9005,
      "##letzt": 9006,
      "civilization": 9007,
      "currently": 9008,
      "meistens": 9009,
      "principles": 9010,
      "climb": 9011,
      "Texas": 9012,
      "Laufe": 9013,
      "Manhatt": 9014,
      "Fant": 9015,
      "Nar": 9016,
      "hunderte": 9017,
      "purs": 9018,
      "verein": 9019,
      "##hte": 9020,
      "##cles": 9021,
      "##keln": 9022,
      "##Os": 9023,
      "wearing": 9024,
      "whom": 9025,
      "meat": 9026,
      "##theit": 9027,
      "##illed": 9028,
      "schaute": 9029,
      "##neiden": 9030,
      "myth": 9031,
      "##aked": 9032,
      "hasn": 9033,
      "prä": 9034,
      "präsent": 9035,
      "enable": 9036,
      "##meister": 9037,
      "eleph": 9038,
      "##ädt": 9039,
      "Does": 9040,
      "Joe": 9041,
      "feedback": 9042,
      "Tests": 9043,
      "kurze": 9044,
      "galaxies": 9045,
      "mentioned": 9046,
      "Gas": 9047,
      "PM": 9048,
      "Rätsel": 9049,
      "Sor": 9050,
      "fiel": 9051,
      "homes": 9052,
      "ju": 9053,
      "##blichkeit": 9054,
      "##care": 9055,
      "##äst": 9056,
      "##inkt": 9057,
      "incent": 9058,
      "einiger": 9059,
      "##etzen": 9060,
      "wear": 9061,
      "soil": 9062,
      "##oler": 9063,
      "##iminal": 9064,
      "schien": 9065,
      "lebte": 9066,
      "depress": 9067,
      "Beob": 9068,
      "##ifik": 9069,
      "Spiegel": 9070,
      "Zucker": 9071,
      "monitor": 9072,
      "Krise": 9073,
      "Gedanke": 9074,
      "investig": 9075,
      "linken": 9076,
      "surprised": 9077,
      "##erechtigkeit": 9078,
      "Australia": 9079,
      "beantworten": 9080,
      "Deutsch": 9081,
      "Each": 9082,
      "Mund": 9083,
      "earn": 9084,
      "pal": 9085,
      "setzt": 9086,
      "wide": 9087,
      "##do": 9088,
      "weather": 9089,
      "##agiert": 9090,
      "##schule": 9091,
      "unless": 9092,
      "station": 9093,
      "gehalten": 9094,
      "worried": 9095,
      "##osing": 9096,
      "somit": 9097,
      "brief": 9098,
      "##ialog": 9099,
      "veget": 9100,
      "nochmal": 9101,
      "##lieb": 9102,
      "##ipment": 9103,
      "dritten": 9104,
      "müsste": 9105,
      "gering": 9106,
      "##problem": 9107,
      "subt": 9108,
      "leader": 9109,
      "Toilet": 9110,
      "treated": 9111,
      "equivalent": 9112,
      "harder": 9113,
      "limited": 9114,
      "##gruppe": 9115,
      "Schimpansen": 9116,
      "Ill": 9117,
      "Mac": 9118,
      "Mütter": 9119,
      "Tie": 9120,
      "##iors": 9121,
      "##cil": 9122,
      "##rete": 9123,
      "##leit": 9124,
      "##alog": 9125,
      "regel": 9126,
      "##allel": 9127,
      "Andere": 9128,
      "aufhören": 9129,
      "Lebe": 9130,
      "Dass": 9131,
      "könnt": 9132,
      "demokrat": 9133,
      "planning": 9134,
      "entstanden": 9135,
      "##ologist": 9136,
      "##ückte": 9137,
      "Anw": 9138,
      "everyday": 9139,
      "##flächen": 9140,
      "traur": 9141,
      "20th": 9142,
      "ließen": 9143,
      "Auss": 9144,
      "surge": 9145,
      "magn": 9146,
      "heads": 9147,
      "##gabe": 9148,
      "##ipping": 9149,
      "businesses": 9150,
      "wichtigen": 9151,
      "Bewegungen": 9152,
      "circle": 9153,
      "Irgend": 9154,
      "hoffentlich": 9155,
      "angesehen": 9156,
      "universal": 9157,
      "vehicle": 9158,
      "##glieder": 9159,
      "entspricht": 9160,
      "Ap": 9161,
      "Pen": 9162,
      "Pac": 9163,
      "Pfl": 9164,
      "due": 9165,
      "rat": 9166,
      "sum": 9167,
      "##oons": 9168,
      "##aßen": 9169,
      "##wich": 9170,
      "##well": 9171,
      "##NS": 9172,
      "##asc": 9173,
      "##owers": 9174,
      "##weiten": 9175,
      "##önlichkeit": 9176,
      "desire": 9177,
      "chann": 9178,
      "##ideos": 9179,
      "##aks": 9180,
      "bull": 9181,
      "##spro": 9182,
      "195": 9183,
      "bekamen": 9184,
      "##aufte": 9185,
      "Flag": 9186,
      "2004": 9187,
      "Steuer": 9188,
      "##immung": 9189,
      "beschl": 9190,
      "Obwohl": 9191,
      "languages": 9192,
      "allerdings": 9193,
      "belong": 9194,
      "Kenya": 9195,
      "received": 9196,
      "Trotz": 9197,
      "galaxy": 9198,
      "Eigentlich": 9199,
      "Individuen": 9200,
      "Säug": 9201,
      "Cal": 9202,
      "Sitz": 9203,
      "cam": 9204,
      "fotograf": 9205,
      "tal": 9206,
      "wave": 9207,
      "##nel": 9208,
      "##mon": 9209,
      "##macht": 9210,
      "bear": 9211,
      "zugäng": 9212,
      "##ierer": 9213,
      "erlebt": 9214,
      "##ischt": 9215,
      "Website": 9216,
      "##uchte": 9217,
      "tech": 9218,
      "Neben": 9219,
      "Wellen": 9220,
      "##äuse": 9221,
      "Abschluss": 9222,
      "belief": 9223,
      "klass": 9224,
      "engl": 9225,
      "Ihres": 9226,
      "interessanter": 9227,
      "magazine": 9228,
      "normale": 9229,
      "married": 9230,
      "Gegensatz": 9231,
      "##heimer": 9232,
      "arms": 9233,
      "invited": 9234,
      "erkannte": 9235,
      "multiple": 9236,
[...]
